{
  "version": "1.0",
  "truncation": null,
  "padding": null,
  "added_tokens": [],
  "normalizer": null,
  "pre_tokenizer": {
    "type": "ByteLevel",
    "add_prefix_space": false,
    "trim_offsets": true,
    "use_regex": true
  },
  "post_processor": {
    "type": "ByteLevel",
    "add_prefix_space": true,
    "trim_offsets": false,
    "use_regex": true
  },
  "decoder": {
    "type": "ByteLevel",
    "add_prefix_space": true,
    "trim_offsets": true,
    "use_regex": true
  },
  "model": {
    "type": "BPE",
    "dropout": null,
    "unk_token": null,
    "continuing_subword_prefix": null,
    "end_of_word_suffix": null,
    "fuse_unk": false,
    "byte_fallback": false,
    "ignore_merges": false,
    "vocab": {
      "\u0000": 0,
      "\u0001": 1,
      "\u0002": 2,
      "\u0003": 3,
      "\u0004": 4,
      "\u0005": 5,
      "\u0006": 6,
      "\u0007": 7,
      "\b": 8,
      "\t": 9,
      "\n": 10,
      "\u000b": 11,
      "\f": 12,
      "\r": 13,
      "\u000e": 14,
      "\u000f": 15,
      "\u0010": 16,
      "\u0011": 17,
      "\u0012": 18,
      "\u0013": 19,
      "\u0014": 20,
      "\u0015": 21,
      "\u0016": 22,
      "\u0017": 23,
      "\u0018": 24,
      "\u0019": 25,
      "\u001a": 26,
      "\u001b": 27,
      "\u001c": 28,
      "\u001d": 29,
      "\u001e": 30,
      "\u001f": 31,
      " ": 32,
      "!": 33,
      "\"": 34,
      "#": 35,
      "$": 36,
      "%": 37,
      "&": 38,
      "'": 39,
      "(": 40,
      ")": 41,
      "*": 42,
      "+": 43,
      ",": 44,
      "-": 45,
      ".": 46,
      "/": 47,
      "0": 48,
      "1": 49,
      "2": 50,
      "3": 51,
      "4": 52,
      "5": 53,
      "6": 54,
      "7": 55,
      "8": 56,
      "Ā": 57,
      "ā": 58,
      "Ă": 59,
      "ă": 60,
      "Ą": 61,
      "ą": 62,
      "Ć": 63,
      "ć": 64,
      "Ĉ": 65,
      "ĉ": 66,
      "Ċ": 67,
      "ċ": 68,
      "Č": 69,
      "č": 70,
      "Ď": 71,
      "ď": 72,
      "Đ": 73,
      "đ": 74,
      "Ē": 75,
      "ē": 76,
      "Ĕ": 77,
      "ĕ": 78,
      "Ė": 79,
      "ė": 80,
      "Ę": 81,
      "ę": 82,
      "Ě": 83,
      "ě": 84,
      "Ĝ": 85,
      "ĝ": 86,
      "Ğ": 87,
      "ğ": 88,
      "Ġ": 89,
      "ĜĜ": 90,
      "ĜĜĜĜ": 91,
      "ĜĜĜĜĜĜĜĜ": 92,
      "ĜĜĜĜĜĜĜĜĜĜĜĜĜĜĜĜ": 93,
      "ĜĜĜĜĜĜĜĜĜĜĜĜĜĜĜĜĜĜĜĜĜĜĜĜĜĜĜĜĜĜĜĜ": 94,
      "ĜĜĜĜĜĜ": 95,
      "ĜĜĜ": 96,
      "ĜĜĜĜĜĜĜĜĜĜĜĜĜĜĜĜĜĜĜĜĜĜĜĜĜĜĜĜĜĜĜĜĜĜĜĜĜĜĜĜ": 97,
      "Ĝĝ": 98,
      "Ĝě": 99,
      "ĜĜĜĜĜĜĜĜĜĜĜĜĜĜĜĜĜĜĜĜĜĜĜĜĜĜĜĜĜĜĜĜĜĜĜĜĜĜĜĜĜĜĜĜĜĜ": 100,
      "ĜĜĜĀ": 101,
      "ĜĜĜĜĜĜĜĜĜĜĜĜĜĜĜĜĜĜĜĜĜĜĜĜĜĜĜĜĜĜĜĜĜĜĜĜĜĜĜĜĜĜĜĜĜĜĜĜ": 102,
      "ĜĜĝ": 103,
      "ĜĜě": 104,
      "ĜĜĜĜĜĜĜĜĜĜĜĜĜĜĜĜĜĜĜĜĜĜĜĜĜĜĜĜĜĜĜĜĜĜĜĜĜĜ": 105,
      "ĜĜĜĜĜĜĜĜĜĜĜĜĜĜĜĜĜĜĜĜĜĜĜĜĜĜĜĜĜĜĜĜĜĜĜĜĜĜĜ": 106,
      "ĜĞ": 107,
      "ĜĜĜĜĜĜĜĜĜĜĜĜĜĜĜĜĜĜĜĜĜĜĜĜĜĜĜĜĜĜĜĜĜĜĜĜĜĜĜĜĜĜĜĜĜĜĜĜĜ": 108,
      "ĜĀ": 109,
      "ĜĜĜĜĜĜě": 110,
      "ĜĚ": 111,
      "ĜĜĜĜĜĜĝ": 112,
      "ĜĜĜĜĝ": 113,
      "ĜĜĜĜĜĜĜĜĜĜĜĜĜĜĜĜĜĜĜĜĜĜĜĜĜĜĜĜĜĜĜĜĜĜĜĜĜĜĜĜĜĜĜĜĜĜĜ": 114,
      "ĜĜĜĜě": 115,
      "ĜĜĜĜĜ": 116,
      "ĜĜĜĜĜĜĜĜĜĜĜĜĜĜĜĜĜĜĜĜĜĜĜĜĜĜĜĜĜĜĜĜĜĜĜĜĜĜĜĜĜ": 117,
      "ěĝ": 118,
      "ĝĝ": 119,
      "ěě": 120,
      "ĜĜĜĜĜě": 121,
      "Ĝę": 122,
      "ĜĜĜĜĜĝ": 123,
      "Ĝğ": 124,
      "ĜĜĜĀĜĜĜĜĜĜĜĜĜĜĜĜĜĜĜĜĜĜĜĜĜĜĜĜĜĜĜĜĜĜĜĜĜĜĜĜĜĜĜĜĜĜĜĜĜĜĜĜĜ": 125,
      "ĜĝĜĀ": 126,
      "ĜĜĞ": 127,
      "ĝĜĜĜĜĜĜĜĜĜĜĜĜĜĜĜĜĜĜĜĜĜĜĜĜĜĜĜĜĜĜĜĜĜĜĜĜĜĜĜĜĜĜĜĜĜĜ": 128,
      "ĜĜĝĜĜĜĜĜĜĜĜĜĜĜĜĜĜĜĜĜĜĜĜĜĜĜĜĜĜĜĜĜĜĜĜĜĜĜĜĜĜĜĜĜĜĜĜĜĜ": 129,
      "ěĜĝ": 130,
      "ĜĜĜĜĜĜĜĜĜĜĜĜĜĜĜĜĜĜĜĜĜĜĜĜ": 131,
      "ĜĜĀ": 132,
      "ĜĘ": 133,
      "ĝě": 134,
      "ěĜĜĜĜĜĜĜĜĜĜĜĜĜĜĜĜĜĜĜĜĜĜĜĜĜĜĜĜĜĜĜĜĜĜĜĜĜĜĜĜĜĜĜĜĜĜĜĜ": 135,
      "ĜĜĚ": 136,
      "ĜĜĜĜĜĜĜĜĜĜĜĜĜĜĜĜĜĜĜĜĜĜĜĜĜĜĜĜĜĜĜĜĜĜ": 137,
      "ĜĜĜĜĜĜĜĜĜĜĜĜĜ": 138,
      "Ĝė": 139,
      "ĜĜĜĝ": 140,
      "ĜĜĜě": 141,
      "ĜĜĜĜĜĜĜĜĜĜĜĜĜĜĜĜĜĜĜĜĜĜĜĜĜĜĜĜĜĜĜĜĜĜĜĜĜĜĜĜĜĜĜĜ": 142,
      "ĜĝĜ": 143,
      "ĜĜĜĜĜĜěĜĜĜĜĜĜĜĜĜĜĜĜĜĜĜĜĜĜĜĜĜĜĜĜĜĜĜĜĜĜĜĜĜĜĜĜĜĜĜ": 144,
      "ĜĜĜĜĜĜĚ": 145,
      "ĜĜĜĜĜĜĞ": 146,
      "ĜĖ": 147,
      "ĜĜěĜĜĜĜĜĜĜĜĜĜĜĜĜĜĜĜĜĜĜĜĜĜĜĜĜĜĜĜĜĜĜĜĜĜĜĜĜĜĜĜĜĜĜĜĜĜ": 148,
      "ĜĜĝĀ": 149,
      "Ĝĕ": 150,
      "ĜĜěĀ": 151,
      "ĜĜĜĜĜĜĘ": 152,
      "ĜĜĜĜĜĜĝĜĜĜĜĜĜĜĜĜĜĜĜĜĜĜĜĜĜĜĜĜĜĜĜĜĜĜĜĜĜĜĜĜĜĜĜĜĜĜ": 153,
      "ěĜě": 154,
      "ĜěĜĜĜĜĜĜĜĜĜĜĜĜĜĜĜĜĜĜĜĜĜĜĜĜĜĜĜĜĜĜĜĜĜĜĜĜĜĜĜĜĜĜĜĜĜĜĜ": 155,
      "ĝĜě": 156,
      "ĜĝĜĜĜĜĜĜĜĜĜĜĜĜĜĜĜĜĜĜĜĜĜĜĜĜĜĜĜĜĜĜĜĜĜĜĜĜĜĜĜĜĜĜĜĜĜĜĜ": 157,
      "ĝĜĝ": 158,
      "ĜěĜ": 159,
      "ěĚ": 160,
      "ĝĜĜĜĜĜĜĜĜĜĜĜĜĜĜĜĜĜĜĜĜĜĜĜĜĜĜĜĜĜĜĜĜĜĜĜĜĜĜĜĜĜĜĜĜĜĜĜĜ": 161,
      "ĜĔ": 162,
      "Ğĝ": 163,
      "Ĝē": 164,
      "ĜĜĜĜĜĜĜĜĜĜĜĜĜĜĜĜĜĜĜĜĜĜĜĜĜ": 165,
      "ĜĜĜĜĀ": 166,
      "ěĜĜĜĜĜĜĜĜĜĜĜĜĜĜĜĜĜĜĜĜĜĜĜĜĜĜĜĜĜĜĜĜĜĜĜĜĜĜĜĜĜĜĜĜĜĜ": 167,
      "ĠĜĜĜĜĜĜ": 168,
      "ěĞ": 169,
      "ĠĜ": 170,
      "ĜĝĜĜĜĜĜĜĜĜĜĜĜĜĜĜĜĜĜĜĜĜĜĜĜĜĜĜĜĜĜĜĜĜĜĜĜĜĜĜĜ": 171,
      "Ĝĝĝ": 172,
      "ĜĜğ": 173,
      "ěĜ": 174,
      "ĜĜĜĜĝĜĜĜĜĜĜĜĜĜĜĜĜĜĜĜĜĜĜĜĜĜĜĜĜĜĜĜĜĜĜĜĜĜĜĜĜĜĜĜĜĜ": 175,
      "ĜěĜĜĜĜĜĜĜĜĜĜĜĜĜĜĜĜĜĜĜĜĜĜĜĜĜĜĜĜĜĜĜĜĜĜĜĜĜĜĜ": 176,
      "ĜĜěĜĜĜ": 177,
      "ĕĜĜĜĀ": 178,
      "ĝĞ": 179,
      "ĞĜĜĜĜĜĜĜĜĜĜĜĜĜĜĜĜĜĜĜĜĜĜĜĜĜĜĜĜĜĜĜĜĜĜĜĜĜĜĜĜĜĜĜĜĜĜ": 180,
      "Ĝ!": 181,
      "ĝĚ": 182,
      "ĔĜĜĜĀ": 183,
      "ĜĜę": 184,
      "ĜĜĜĜěĜĜĜĜĜĜĜĜĜĜĜĜĜĜĜĜĜĜĜĜĜĜĜĜĜĜĜĜĜĜĜĜĜĜĜĜĜĜĜĜĜ": 185,
      "ĜĞĜĀ": 186,
      "ĖĜĜĜĀ": 187,
      "ĜěĝĜĜĜĜĜĜĜĜĜĜĜĜĜĜĜĜĜĜĜĜĜĜĜĜĜĜĜĜĜĜĜĜĜĜĜĜĜĜĜĜĜĜĜĜĜĜ": 188,
      "ĜĜĜĜĜĜĖ": 189,
      "ĜĜĜĜĜĜěĜĜĜĜĜĜĜĜĜĜĜĜĜĜĜĜĜĜĜĜĜĜĜĜĜĜĜĜĜĜĜĜ": 190,
      "ĜĜĝĜĜĜ": 191,
      "ĜĒ": 192,
      "ěĜĜĀ": 193,
      "ĜĜĜĜĜĜĝĜĜĜĜĜĜĜĜĜĜĜĜĜĜĜĜĜĜĜĜĜĜĜĜĜĜĜĜĜĜĜĜ": 194,
      "ĜĜĜĜĜĜĕ": 195,
      "ĜĜĜĜĜĜ#": 196,
      "ĜĜĜĜĜĜĜĜĜĜĜĜĜě": 197,
      "ĜĞĜ": 198,
      "ęĜ": 199,
      "ěĜĜ": 200,
      "ĜĜĜĜĜĜĜĜĜĜĜĜĜĝ": 201,
      "ĜĜĜĜĜĜĜĜĜĜĜĜĜĜĜĜĜĜĜĜĜĜĜĜĜĜĜĜĜĜĜĜĜĜĜĜĜĜĜĜĜĜĜ": 202,
      "ĀĜĜĜĜĜĜĜĜĜĜĜĜĜĜĜĜĜĜĜĜĜĜĜĜĜĜĜĜĜĜĜĜĜĜĜĜĜĜĜĜĜĜĜĜĜĜĜĜĜ": 203,
      "ēĜĜĜĀ": 204,
      "ěĜĞ": 205,
      "ĚĜĝ": 206,
      "ėĜĜĜĀ": 207,
      "ĜĚĜ": 208,
      "Ěě": 209,
      "Ĝ\"": 210,
      "ĝĜĜĜĜĜ": 211,
      "Ĝěĝ": 212,
      "ĜĜĜĜĜĜĜĜĜĜĜĜĜĜĜĜĜĜĜĜĜĜĜĜĜĜĜĜĜĜĜĜĜĜĜĜĜĜĜĜĜĜĜĜĜ": 213,
      "Ĝđ": 214,
      "ěĜĝĜĜĜĜĜĜĜĜĜĜĜĜĜĜĜĜĜĜĜĜĜĜĜĜĜĜĜĜĜĜĜĜĜĜĜĜĜĜĜĜĜĜĜĜĜĜ": 215,
      "ĜĜĜĜĜĜĜĜĜĜĜĜĜĜĜĜĜĜĜĜĜĜĜĜĜĜĜ": 216,
      "ğĝ": 217,
      "ĚĜ": 218,
      "ěĜěĜĜĜĜĜĜĜĜĜĜĜĜĜĜĜĜĜĜĜĜĜĜĜĜĜĜĜĜĜĜĜĜĜĜĜĜĜĜĜĜĜĜĜĜĜĜ": 219,
      "ĜĜĜĜĜĜ\"": 220,
      "Ĝĝě": 221,
      "ĜĝĝĜĜĜĜĜĜĜĜĜĜĜĜĜĜĜĜĜĜĜĜĜĜĜĜĜĜĜĜĜĜĜĜĜĜĜĜĜĜĜĜĜĜĜĜĜĜ": 222,
      "ĜĜĜĜĝĜě": 223,
      "Ěĝ": 224,
      "ĞĜě": 225,
      "ĜĜĜĜĜĜĜĜĜĜĜ": 226,
      "ĜĜĜĜĜĜĜĜĜĜĜĜĜĜĜĜĜĜ": 227,
      "Ġĝ": 228,
      "ĜěĜĀ": 229,
      "ĜĜĞĀ": 230,
      "Ğě": 231,
      "Ĝ#": 232,
      "%ĜĜĜĜĜĜ": 233,
      "ĘĜĜĜĀ": 234,
      "ĘĜ": 235,
      "ĜęĜ": 236,
      "ĜĜĜĜĜĜĜĜĜĜĜĜĜĜĜĜĜĜĜĜĜĜĜĜĜĜĜĜĜĜĜĜĜ": 237,
      "ĜĜĜĜĜĜĜě": 238,
      "ĒĜĜĜĀ": 239,
      "ēĜĜĜĜĜĜ": 240,
      "ěĜĜĜĜĜ": 241,
      "ĜĐ": 242,
      "ĜěĜĜĜĜĜĜĜĜĜĜĜĜĜĜĜĜĜĜĜĜĜĜĜĜĜĜĜĜĜĜĜĜĜĜĜĜĜĜĜĜĜĜĜĜ": 243,
      "ĝĜĜ": 244,
      "ĜĜĚĀ": 245,
      "ĜĝĜĀĜĜĜĜĜĜĜĜĜĜĜĜĜĜĜĜĜĜĜĜĜĜĜĜĜĜĜĜĜĜĜĜĜĜĜĜĜĜĜĜĜĜĜĜĜĜĜĜĜ": 246,
      "ěěĝ": 247,
      "ĜğĜ": 248,
      "Ĝěě": 249,
      "ĜĜĘ": 250,
      "ĜĜĞĜĜĜĜĜĜĜĜĜĜĜĜĜĜĜĜĜĜĜĜĜĜĜĜĜĜĜĜĜĜĜĜĜĜĜĜĜĜĜĜĜĜĜĜĜĜ": 251,
      "ĜĜĜĜĜĜěĜĜĜĜĜĜě": 252,
      "ĝĜĝĜĜĜĜĜĜĜĜĜĜĜĜĜĜĜĜĜĜĜĜĜĜĜĜĜĜĜĜĜĜĜĜĜĜĜĜĜĜĜĜĜĜĜĜĜĜ": 253,
      "ĠĜĜĜĜĜĜė": 254,
      "ěĝĜĜĜĜĜĜĜĜĜĜĜĜĜĜĜĜĜĜĜĜĜĜĜĜĜĜĜĜĜĜĜĜĜĜĜĜĜĜĜĜĜĜĜĜĜĜĜ": 255,
      "ĜĝĜĜĜĜ": 256,
      "ĜĞĝ": 257,
      "ĜĜĜĜĜĜ!": 258,
      "ĜĜĜĜĜĜė": 259,
      "Ĝď": 260,
      "Ĝ$": 261,
      "ĜĜĜĜĜĜĜĝ": 262,
      "ĝĜĚ": 263,
      "ęĜĜĜĀ": 264,
      "ĚĜě": 265,
      "#ĝ": 266,
      "ĚĞ": 267,
      "ĠĜĜĜĜĜĜ!": 268,
      "Ĝ&": 269,
      "Ĝ*": 270,
      "\"ĝ": 271,
      "ěę": 272,
      "Ĝ%": 273,
      "Ĝ(": 274,
      "Ĝ'": 275,
      "ĜĜĜĜĜĜĜĜĜĜĜĜ": 276,
      "Ĝ.": 277,
      "ĞĞ": 278,
      "!ĝ": 279,
      "ĜĎ": 280,
      "ĠĞ": 281,
      "ĜěĜĜĜĜě": 282,
      "đĜĜĜĀ": 283,
      "ĜĜĜĜĜĜĜĜĜĜĜĝ": 284,
      "ĜĝĜĜĝ": 285,
      "ĜĜĜĜĜĜĜĜě": 286,
      "ĚĚ": 287,
      "ĜĜĜĜĜĜĜĜĝ": 288,
      "ęě": 289,
      "ğě": 290,
      "ĜĝĜĜĜĜĝ": 291,
      "Ĝ,": 292,
      "ĜĜĜĜĜĜěĜĜĜĜĜĜĜĜĜĜĜĜĜĜĜĜĜĜĜĜĜĜĜĜĜĜĜĜĜĜĜĜĜĜĜĜĜĜĜĜĜ": 293,
      "ěěĜĜĜĜĜĜĜĜĜĜĜĜĜĜĜĜĜĜĜĜĜĜĜĜĜĜĜĜĜĜĜĜĜĜĜĜĜĜĜĜĜĜĜĜĜĜĜ": 294,
      "ĜĜĜĜĜěě": 295,
      "ĝĜĜĀ": 296,
      "Ĝ)": 297,
      "ĜěĜĜĜĜĝ": 298,
      "ĜĘĜ": 299,
      "ĜĜĜĜĜĜĜĜĜĜĜě": 300,
      "ğĞ": 301,
      "ĜĜĜĜĜěĜĜĜĜĜĜĜĜĜĜĜĜĜĜĜĜĜĜĜĜĜĜĜĜĜĜĜĜĜĜĜĜĜĜĜĜĜĜĜĜ": 302,
      "Ĝ+": 303,
      "Ĝ-": 304,
      "ĜĝĜĜĜĜě": 305,
      "ĜĜĜĜĜĜĜĜĜĜĜĜĜĜĜĜĜĜĜĜĜĜĜĜĜĜ": 306,
      "ĜĜĜĀěĜĜĜĜĜĜĜĜĜĜĜĜĜĜĜĜĜĜĜĜĜĜĜĜĜĜĜĜĜĜĜĜĜĜĜĜĜĜĜĜĜĜĜĜĜĜĜĜ": 307,
      "ĜĝĞ": 308,
      "\"ĜĜĜĜĜĜĜĜĜĜĜĜĜ": 309,
      "Ġě": 310,
      "ĜĜĜĜĜĝĜĜĜĜĜĜĜĜĜĜĜĜĜĜĜĜĜĜĜĜĜĜĜĜĜĜĜĜĜĜĜĜĜĜĜĜĜĜĜĜ": 311,
      "ĜěĜĜĜĜ": 312,
      "ĝěĝ": 313,
      "ĜĜĜĜĜĜĝĜĜĜĜĜĜĝ": 314,
      "ĚĜĜĜĀ": 315,
      "$Ğ": 316,
      "ĜěĜĜĝ": 317,
      "ĜěĜĜě": 318,
      "#Ğ": 319,
      "ĜĚĝ": 320,
      "ĜĝěĜĜĜĜĜĜĜĜĜĜĜĜĜĜĜĜĜĜĜĜĜĜĜĜĜĜĜĜĜĜĜĜĜĜĜĜĜĜĜĜĜĜĜĜĜĜ": 321,
      "ĜĜĜĜĜĜĖĜĜĜĜĜĜĜĜĜĜĜĜĜ": 322,
      "ĖĜĜĜĜĜĜĜĜĜĜĜĜĜ": 323,
      "ğĜ": 324,
      "ĕĜĜĜĀĜĜĜĜĜĜĜĜĜĜĜĜĜĜĜĜĜĜĜĜĜĜĜĜĜĜĜĜĜĜĜĜĜĜĜĜĜĜĜĜĜĜĜĜĜĜĜĜĜ": 325,
      "ĜĜĜĜĜĝĝ": 326,
      "ěĜĜĜĀ": 327,
      "ěĜĚ": 328,
      "ğĜĜĜĜĜĜĜĜĜĜĜĜĜĜĜĜĜĜĜĜĜĜĜĜĜĜĜĜĜĜĜĜĜĜĜĜĜĜĜĜĜĜĜĜĜĜ": 329,
      "ĜĜĜĜĜĝĜĜĜĜĜĜĜĜĜĜĜĜĜĜĜĜĜĜĜĜĜĜĜĜĜĜĜĜĜĜĜĜĜĜĜĜĜĜĜĜĜ": 330,
      "ĜĜěĀĜĜĜĜĜĜĜĜĜĜĜĜĜĜĜĜĜĜĜĜĜĜĜĜĜĜĜĜĜĜĜĜĜĜĜĜĜĜĜĜĜĜĜĜĜĜĜĜĜ": 331,
      "ĜĜĜĜĜĜĝĜĜĜĜĜĜĜĜĜĜĜĜĜĜĜĜĜĜĜĜĜĜĜĜĜĜĜĜĜĜĜĜĜĜĜĜĜĜĜĜĜ": 332,
      "#ğ": 333,
      "ėĜ": 334,
      "ĜĜĜē": 335,
      "!Ğ": 336,
      "ĝĜĞ": 337,
      "\"Ğ": 338,
      "ĜĜĜĜĜĜěĜĜĜĜĜĜĝ": 339,
      "ĜĜĜĜĜěĜĜĜĜĜĜĜĜĜĜĜĜĜĜĜĜĜĜĜĜĜĜĜĜĜĜĜĜĜĜĜĜĜĜĜĜĜĜĜĜĜ": 340,
      "ĚĜĞ": 341,
      "ĜĚĜĀ": 342,
      "ĝĜěĜĜĜĜĜĜĜĜĜĜĜĜĜĜĜĜĜĜĜĜĜĜĜĜĜĜĜĜĜĜĜĜĜĜĜĜĜĜĜĜĜĜĜĜĜĜ": 343,
      "ĜěĞ": 344,
      "ĜĜĜĄ": 345,
      "Ĝ/": 346,
      "ĝěĜĜĜĜĜĜĜĜĜĜĜĜĜĜĜĜĜĜĜĜĜĜĜĜĜĜĜĜĜĜĜĜĜĜĜĜĜĜĜĜĜĜĜĜĜĜĜ": 347,
      "ĠĀ": 348,
      "ĜĜĜĀĜĜěĜĜĜĜĜĜĜĜĜĜĜĜĜĜĜĜĜĜĜĜĜĜĜĜĜĜĜĜĜĜĜĜĜĜĜĜĜĜĜĜĜĜĜĜĜĜ": 349,
      "ĜĝĜĜě": 350,
      "ęĝ": 351,
      "ĞĚ": 352,
      "ěĝĝĜĜĜĜĜĜĜĜĜĜĜĜĜĜĜĜĜĜĜĜĜĜĜĜĜĜĜĜĜĜĜĜĜĜĜĜĜĜĜĜĜĜĜĜĜĜ": 353,
      "ĜĜĜĜĜĜ%ĜĜĜĜĜĜ": 354,
      "ğĚ": 355,
      "ĠĜĜĜĜĜĜĚ": 356,
      "ěĜĜĜ": 357,
      "ĔĜĜĜĀĜĜĜĜĜĜĜĜĜĜĜĜĜĜĜĜĜĜĜĜĜĜĜĜĜĜĜĜĜĜĜĜĜĜĜĜĜĜĜĜĜĜĜĜĜĜĜĜĜ": 358,
      "ĜĝĚ": 359,
      "Ġğ": 360,
      "ĞĜĜ": 361,
      "ĜėĜ": 362,
      "ĜĜĜĜĜĜĜĜĜĜĜĜĜĜĜĜĜĜĜĜ": 363,
      "ěĝĝ": 364,
      "ĝĜěĜĜĜ": 365,
      "ĜĜĜĜĞ": 366,
      "$ğ": 367,
      "$ĝ": 368,
      "ĜĜğĀ": 369,
      "ĝĝĜĜĜĜĜĜĜĜĜĜĜĜĜĜĜĜĜĜĜĜĜĜĜĜĜĜĜĜĜĜĜĜĜĜĜĜĜĜĜĜĜĜĜĜĜĜĜ": 370,
      "ĜĜĜĜĜĜĞĜĜĜĜĜĜ": 371,
      "ĖĜĜĜĀĜĜĜĜĜĜĜĜĜĜĜĜĜĜĜĜĜĜĜĜĜĜĜĜĜĜĜĜĜĜĜĜĜĜĜĜĜĜĜĜĜĜĜĜĜĜĜĜĜ": 372,
      "ĜĝĝĀ": 373,
      "ĐĜĜĜĀ": 374,
      "\"ğ": 375,
      "ĠĜĜĜĜĜĜĞ": 376,
      "ĜĜė": 377,
      "ĜĜĜĜĜĜěĜĜĜĜĜĜĜĜĜĜĜĜĜĜĜĜĜĜĜĜĜĜĜĜĜĜĜĜĜĜĜĜĜĜ": 378,
      "ĜĜĜĜĜĜĖĜĜĜĜĜĜ": 379,
      "ĜĜĜĜěĜĝ": 380,
      "ĠĜĜĜĜĜĜėĜĜĜĜĜĜ": 381,
      "ĚĜĜĜĜĜĜĜĜĜĜĜĜĜĜĜĜĜĜĜĜĜĜĜĜĜĜĜĜĜĜĜĜĜĜĜĜĜĜĜĜĜĜĜĜĜĜĜĜ": 382,
      "ĜěěĜĜĜĜĜĜĜĜĜĜĜĜĜĜĜĜĜĜĜĜĜĜĜĜĜĜĜĜĜĜĜĜĜĜĜĜĜĜĜĜĜĜĜĜĜĜ": 383,
      "ĜĜĜĜĜĜĘĜĜĜĜĜĜĞ": 384,
      "ĜĜĜĜĝĜĜĜĜĜĜĜĜĜĜĜĜĜĜĜĜĜĜĜĜĜĜĜĜĜĜĜĜĜĜĜĜĜĜ": 385,
      "ěĜĝĜĜĜ": 386,
      "%Ğ": 387,
      "ěĜğ": 388,
      "ĝğ": 389,
      "ĜěĞĜĜĜĜĜĜĜĜĜĜĜĜĜĜĜĜĜĜĜĜĜĜĜĜĜĜĜĜĜĜĜĜĜĜĜĜĜĜĜĜĜĜĜĜĜĜ": 390,
      "ĝę": 391,
      "Ġ8": 392,
      "ĜĜĜĜĜĝě": 393,
      "ĠĚ": 394,
      "ĖĜĜĜ": 395,
      "!ě": 396,
      "ĔĜĜĜĜĜĜ#": 397,
      "ĔĜĜĜĜĜĜ#ĜĜĜĜĜĜĖĜĜĜĜĜĜ": 398,
      "ĜĜĜĜĜĜĜĜĜĜĜĜě": 399,
      "ğğ": 400,
      "ĖĜĜĜĜĜĜĜĜĜĜĜĜĜ!": 401,
      "ĞĜĝ": 402,
      "Ġę": 403,
      "ĝĜę": 404,
      "ĝĜĜĜ": 405,
      "ĜĜĜĜĜĜĜĜĜĜĜĜĜĝĜĜĜĜĜĜĜĜĜĜĜĜĜĜĜĜĜĜĜĜĜĜĜĜĜĜĜĜĜĜĜĜ": 406,
      "ĜĜĜĜĜĜĘĜĜĜĜĜĜĚ": 407,
      "ĜěĚ": 408,
      "ĜĜĜĜĜĜĘĜĜĜĜĜĜė": 409,
      "ĝěě": 410,
      "ĜĜĜĜĝĜěĜĜĜĜĜĜĜĜĜĜĜĜĜĜĜĜĜĜĜĜĜĜĜĜĜĜĜĜĜĜĜĜĜĜĜĜĜĜĜ": 411,
      "ęĜĜĜ": 412,
      "ĜĜĜĜĜĜěĜĜĜĜĜĜĜĜĜĜĜĜĜĜĜĜĜĜĜĜĜĜĜĜĜ": 413,
      "ĜĜĜĜĜĜĝĜĜĜĜĜĜĜĜĜĜĜĜĜĜĜĜĜĜĜĜĜĜĜĜĜĜĜĜĜĜĜĜĜĜ": 414,
      "ĜĜĜĀĜĜĝĜĜĜĜĜĜĜĜĜĜĜĜĜĜĜĜĜĜĜĜĜĜĜĜĜĜĜĜĜĜĜĜĜĜĜĜĜĜĜĜĜĜĜĜĜĜ": 415,
      "ĜĜĜĜĜĜĝĜĜĜĜĜĜĜĜĜĜĜĜĜĜĜĜĜĜĜĜĜĜĜĜĜĜĜĜĜĜĜĜĜĜĜĜĜĜĜĜ": 416,
      "ĜĜĜĜĜĜ\"ĜĜĜĜĜĜĘĜĜĜĜĜĜĞ": 417,
      "ĠĜĜĜĜĜĜ!ĜĜĜĜĜĜ": 418,
      "ĜĚě": 419,
      "ĜĜĜĜĜĜĚĜĜĜĜĜĜ": 420,
      "ĜĜĜĜĜĜ!ĜĜĜĜĜĜĘ": 421,
      "ĞĀ": 422,
      "!ğ": 423,
      "ĖĜ": 424,
      "ĞĜ": 425,
      "ğĜĜĜĜĜĜĕ": 426,
      "ĜĜĜĜĜĜĞĜĜĜĜĜĜĘĜĜĜĜĜĜė": 427,
      "ĜĜĜĜĜĜěĜĜĜĜĜĜĜĜĜĜĜĜĜĜĜĜĜĜĜĜĜĜĜĜĜĜĜĜĜĜĜĜĜĜĜĜĜĜĜĜ": 428,
      "ēĜĜĜĀĜĜĜĜĜĜĜĜĜĜĜĜĜĜĜĜĜĜĜĜĜĜĜĜĜĜĜĜĜĜĜĜĜĜĜĜĜĜĜĜĜĜĜĜĜĜĜĜĜ": 429,
      "ěĘ": 430,
      "ĜĜĜĜĜĜĘĜĜĜĜĜĜ!": 431,
      "ğĜĜĜĜĜĜĕĜĜĜĜĜĜĞĜĜĜĜĜĜ": 432,
      "Ěěĝ": 433,
      "ěğ": 434,
      "ĜğĜĀ": 435,
      "ĜĜĝĀĜĜĜĜĜĜĜĜĜĜĜĜĜĜĜĜĜĜĜĜĜĜĜĜĜĜĜĜĜĜĜĜĜĜĜĜĜĜĜĜĜĜĜĜĜĜĜĜĜ": 436,
      "ĜĞě": 437,
      "ĜĝěĀ": 438,
      "!Ě": 439,
      "ěěĝĜĜĜĜĜĜĜĜĜĜĜĜĜĜĜĜĜĜĜĜĜĜĜĜĜĜĜĜĜĜĜĜĜĜĜĜĜĜĜĜĜĜĜĜĜĜ": 440,
      "ĜĜĜĜĜĜĖĜĜĜĜĜĜĘĜĜĜĜĜĜĚ": 441,
      "ėĜĜĜ": 442,
      "ĜĜĜĜĜěĝ": 443,
      "ęĜĝ": 444,
      "ĘĜĜĜ": 445,
      "ĜĜĜĜěĜĝĜĜĜĜĜĜĜĜĜĜĜĜĜĜĜĜĜĜĜĜĜĜĜĜĜĜĜĜĜĜĜĜĜĜĜĜĜĜĜ": 446,
      "ĞĜĚ": 447,
      "%ĜĜĜĜĜĜĜĜĜĜĜĜĜ": 448,
      "ęĚ": 449,
      "ĜĜĚĜĜĜĜĜĜĜĜĜĜĜĜĜĜĜĜĜĜĜĜĜĜĜĜĜĜĜĜĜĜĜĜĜĜĜĜĜĜĜĜĜĜĜĜĜĜ": 450,
      "\"ĜĜĜĜĜĜĜĜĜĜĜĜĜė": 451,
      "%ĜĜĜĜĜĜĜĜĜĜĜĜĜĖĜĜĜĜĜĜĜĜĜĜĜĜĜ!": 452,
      "ĘĜĜĜĜĜĜ!ĜĜĜĜĜĜĘ": 453,
      "ĜĝĜĜĜĜĜĜĜĜĜĜĜĜĜĜĜĜĜĜĜĜĜĜĜĜĜĜĜĜĜĜĜĜĜĜĜĜĜĜĜĜĜĜĜĜ": 454,
      "%ĝ": 455,
      "$ĜĜĜĜĜĜĕ": 456,
      "ĘĜĜĜĜĜĜė": 457,
      "ĜĜ!": 458,
      "ğĜĜĜĜĜĜ#": 459,
      "ĜĜĜĜĜĜĜĜĜĜ": 460,
      "ĜĜęĀ": 461,
      "ĜĜĜĜĜĜĜĜĜĜĜĜĜĜĜĜĜĜĜ": 462,
      "ĜĜĜĜĜĜĚĜĜĜĜĜĜĘĜĜĜĜĜĜ!": 463,
      ")ĜĜĜĜĜĜĖĜĜĜĜĜĜĜĜĜĜĜĜĜ": 464,
      "ĜĜĜĒ": 465,
      "ĜĚĝĜĜĜĜĜĜĜĜĜĜĜĜĜĜĜĜĜĜĜĜĜĜĜĜĜĜĜĜĜĜĜĜĜĜĜĜĜĜĜĜĜĜĜĜĜĜ": 466,
      "ĝĀ": 467,
      "$ĜĜĜĜĜĜĕĜĜĜĜĜĜ\"ĜĜĜĜĜĜĘĜĜĜĜĜĜĞ": 468,
      "ğĜĜĜĜĜĜ#ĜĜĜĜĜĜĞĜĜĜĜĜĜĘĜĜĜĜĜĜė": 469,
      "ĔĜĜĜĜĜĜĕ": 470,
      "ĜĜĝĜĜĜĜĜĜěĜĜĜĜĜĜĜĜĜĜĜĜĜĜĜĜĜĜĜĜĜĜĜĜĜĜĜĜĜĜĜĜĜĜĜĜĜĜĜ": 471,
      "ĕĜĜĜ": 472,
      "Ěĝĝ": 473,
      "ĜĜĜĜěĜĜĜĜĜĜĜĜĜĜĜĜĜĜĜĜĜĜĜĜĜĜĜĜĜĜĜĜĜĜĜĜĜĜ": 474,
      "ěĜĞĜĜĜĜĜĜĜĜĜĜĜĜĜĜĜĜĜĜĜĜĜĜĜĜĜĜĜĜĜĜĜĜĜĜĜĜĜĜĜĜĜĜĜĜĜĜ": 475,
      "ĚĜĚ": 476,
      "ěĜĝĀ": 477,
      "-ĜĜĜ": 478,
      "ĜĜĜĜĜĜēĜĜĜĜĜĜ": 479,
      "ĝĜĘ": 480,
      "ĜĜĜĜĜĜĜěĜĜĜĜĜĜĜĜĜĜĜĜĜĜĜĜĜĜĜĜĜĜĜĜĜĜĜĜĜĜĜĜĜĜĜĜĜĜĜĜĜ": 481,
      "\"ě": 482,
      "+ĜĜĜ": 483,
      "ĜęĜĀ": 484,
      "Ğğ": 485,
      "ĜĜĜĜĜĜĜĜĜĜĜĜĜĜĜĜĜĜĜĜě": 486,
      ",ĜĜĜ": 487,
      "ĝĘ": 488,
      "ğĀ": 489,
      "\"Ě": 490,
      "ĔĜĜĜĜĜĜĕĜĜĜĜĜĜĖĜĜĜĜĜĜĘĜĜĜĜĜĜĚ": 491,
      "ĒĜĝĜĀ": 492,
      "ęĜĞ": 493,
      "ęĜĜĜĜĜĜ#": 494,
      "ĜĕĜĜĜĀ": 495,
      "ĜĜěĜĜĜĜĜĜĜĜĜĜĜĜĜĜĜĜĜĜĜĜĜĜĜĜĜĜĜĜĜĜĜĜĜĜĜĜĜĜĜĜĜĜĜ": 496,
      "ĔĜĜĜ": 497,
      "ĘĜĜĜĜĜĜėĜĜĜĜĜĜĘ": 498,
      "ĜĜĜĜĜĜ\"ĜĜĜĜĜĜĜĜĜĜĜĜĜ": 499,
      "ĜĜĜĜĜĜ\"ĜĜĜĜĜĜ": 500,
      "ĠĜĜĜ": 501,
      "ĕĜĝĜĀ": 502,
      "ēĜĝĜĀ": 503,
      "ĜĜĜĜĜĜĜĜĜĜĜĜĝ": 504,
      "ĜĚĜĜĜĜĜĜĜĜĜĜĜĜĜĜĜĜĜĜĜĜĜĜĜĜĜĜĜĜĜĜĜĜĜĜĜĜĜĜĜĜĜĜĜĜĜĜĜ": 505,
      "*ĜĜĜ": 506,
      "ĕĜ": 507,
      "ěĜĜĜě": 508,
      "Ğę": 509,
      "ĜĜĝĜĜĜĜĜĜĜĜĜĜĜĜĜĜĜĜĜĜĜĜĜĜĜĜĜĜĜĜĜĜĜĜĜĜĜĜĜĜĜĜĜĜĜ": 510,
      "ĜĀĜĜĜĜĜĜĜĜĜĜĜĜĜĜĜĜĜĜĜĜĜĜĜĜĜĜĜĜĜĜĜĜĜĜĜĜĜĜĜĜĜĜĜĜĜĜĜĜĜ": 511,
      "!Ĝ": 512,
      "ĚĜĜĀ": 513,
      "ėĜĜĜĀĜĜĜĜĜĜĜĜĜĜĜĜĜĜĜĜĜĜĜĜĜĜĜĜĜĜĜĜĜĜĜĜĜĜĜĜĜĜĜĜĜĜĜĜĜĜĜĜĜ": 514,
      "ĚĜğ": 515,
      "ĜĝĞĜĜĜĜĜĜĜĜĜĜĜĜĜĜĜĜĜĜĜĜĜĜĜĜĜĜĜĜĜĜĜĜĜĜĜĜĜĜĜĜĜĜĜĜĜĜ": 516,
      "ĜĞĞ": 517,
      "#ě": 518,
      "ĜĜĜĜĜĜĜĝĜĜĜĜĜĜĜĜĜĜĜĜĜĜĜĜĜĜĜĜĜĜĜĜĜĜĜĜĜĜĜĜĜĜĜĜĜĜĜ": 519,
      "ěĜĜĜĜĜĜěĜĜĜĜĜĜĜĜĜĜĜĜĜĜĜĜĜĜĜĜĜĜĜĜĜĜĜĜĜĜĜĜĜĜĜĜĜĜĜĜĜ": 520,
      "ĝěĝĜĜĜĜĜĜĜĜĜĜĜĜĜĜĜĜĜĜĜĜĜĜĜĜĜĜĜĜĜĜĜĜĜĜĜĜĜĜĜĜĜĜĜĜĜĜ": 521,
      "ĔĜĝĜĀ": 522,
      ".ĜĜĜ": 523,
      "ĜěĜĜĜ": 524,
      "ĜĜĜĜĜĜěĜĜĜĜĜĜĜĜĜĜĜĜĜĜĜĜĜĜ": 525,
      "ěĝěĜĜĜĜĜĜĜĜĜĜĜĜĜĜĜĜĜĜĜĜĜĜĜĜĜĜĜĜĜĜĜĜĜĜĜĜĜĜĜĜĜĜĜĜĜĜ": 526,
      "ĚĜĜ": 527,
      "ĝĜ": 528,
      "ęĜĜĜĜĜĜ#ĜĜĜĜĜĜĚĜĜĜĜĜĜĘĜĜĜĜĜĜ!": 529,
      "ĜĜĜĜĜĜĜĝĜĜĜĜĜĜĜĜĜĜĜĜĜĜĜĜĜĜĜĜĜĜĜĜĜĜĜĜĜĜĜĜĜĜĜĜĜĜĜĜĜ": 530,
      ")ĜĜĜ": 531,
      "ĒĜĜĜĀĜĜĜĜĜĜĜĜĜĜĜĜĜĜĜĜĜĜĜĜĜĜĜĜĜĜĜĜĜĜĜĜĜĜĜĜĜĜĜĜĜĜĜĜĜĜĜĜĜ": 532,
      "ęĞ": 533,
      "ĜĞĜĜĜĜĜĜĜĜĜĜĜĜĜĜĜĜĜĜĜĜĜĜĜĜĜĜĜĜĜĜĜĜĜĜĜĜĜĜĜĜĜĜĜĜĜĜĜ": 534,
      "ēĜĜĜ": 535,
      "!ę": 536,
      "%ğ": 537,
      "ĜĕĜĜĜĀĜĜĜĜĜĜĜĜĜĜĜĜĜĜĜĜĜĜĜĜĜĜĜĜĜĜĜĜĜĜĜĜĜĜĜĜĜĜĜĜĜĜĜĜĜĜĜĜĜ": 538,
      "ĜĖĜĜĜĀ": 539,
      "ĞĜę": 540,
      "ĜĜĜĜĝĜĝĜĜĜĜĜĜĜĜĜĜĜĜĜĜĜĜĜĜĜĜĜĜĜĜĜĜĜĜĜĜĜĜĜĜĜĜĜĜĜ": 541,
      "ęĜĜĜĜĜĜĕ": 542,
      "(ĜĜĜ": 543,
      "ĝěĜ": 544,
      "ĜĜĜĜĜĜğ": 545,
      "ĜĜěě": 546,
      "$ĜĜĜĜĜĜ#": 547,
      "ĜĜĜĜĜĜę": 548,
      "ĜĜĜĜĝĜĚ": 549,
      "ĚĜĜĜ": 550,
      "\"ę": 551,
      "ĜĜĜĜĀĜĜĜĜĜĜĜĜĜĜĜĜĜĜĜĜĜĜĜĜĜĜĜĜĜĜĜĜĜĜĜĜĜĜĜĜĜĜĜĜĜĜĜĜĜĜĜĜĜ": 552,
      "&Ğ": 553,
      "ĜĜĜĜĝĝ": 554,
      "ĜĜĜĜĜĜĜĜĜĜĜěĜĜĜĜĜĜĜĜĜĜĜĜĜĜĜĜĜĜĜĜĜĜĜĜĜĜĜĜĜĜĜĜĜĜ": 555,
      "ĜĜĜĜěĜĞ": 556,
      "ĜěĜĜĜĜěĜĜĜĜĜĜĜĜĜĜĜĜĜĜĜĜĜĜĜĜĜĜĜĜĜĜĜĜĜĜĜĜĜĜĜĜĜĜĜ": 557,
      "ĜĝĜĜĜĜĜĜĜĜĜĜĜĜĜĜĜĜĜĜĜĜĜĜĜĜĜĜĜĜĜĜĜĜ": 558,
      "Ġ!": 559,
      "ĜĜĜĜĚ": 560,
      "ĜĜĜĜĜĜĜĜĜĜĜĜĜĜĜĜĜĜĜĜĝ": 561,
      "ĜĜĜĜĜĜĜĜĜěĜĜĜĜĜĜĜĜĜĜĜĜĜĜĜĜĜĜĜĜĜĜĜĜĜĜĜĜĜĜĜĜĜĜĜĜĜĜĜ": 562,
      "ĜĜĜĜěě": 563,
      "ĜĜĜĜĜĜěĜĜĜĜĜĜĝĜĜĜĜĜĜĜĜĜĜĜĜĜĜĜĜĜĜĜĜĜĜĜĜĜĜĜĜĜĜĜĜ": 564,
      "ĜěĜĜĜĜĝĜĜĜĜĜĜĜĜĜĜĜĜĜĜĜĜĜĜĜĜĜĜĜĜĜĜĜĜĜĜĜĜĜĜĜĜĜĜĜ": 565,
      "ğę": 566,
      "ĜĜĜĜĜĜĜĜĜĜĜĜĜ\"ĜĜĜĜĜĜĜĜĜĜĜĜĜė": 567,
      "ĜĜĝĝ": 568,
      "&ĝ": 569,
      "ĜĜĜĜĜĜĝĜĜĜĜĜĜĜĜĜĜĜĜĜĜĜĜĜĜĜĜĜĜĜĜĜ": 570,
      "ĜĜĜĜĜĜěĜĜĜĜĜĜěĜĜĜĜĜĜĜĜĜĜĜĜĜĜĜĜĜĜĜĜĜĜĜĜĜĜĜĜĜĜĜĜ": 571,
      "ĠĜĜĜĜĜĜĜĜĜĜĜĜĜĜĜĜĜĜĜĜĜĜĜĜĜĜĜĜĜĜĜĜĜĜĜĜĜĜĜĜĜĜĜĜĜĜ": 572,
      "ĜĔĜĜĜĀ": 573,
      "ĜĜĜĜĀĜĝĜĜĜĜĜĜĜĜĜĜĜĜĜĜĜĜĜĜĜĜĜĜĜĜĜĜĜĜĜĜĜĜĜĜĜĜĜĜĜĜĜĜĜĜĜĜĜ": 574,
      "'ĜĜĜ": 575,
      "đĜĝĜĀ": 576,
      "ĜĜĜ%": 577,
      "ĜĜĜĜĜĜěĜĜĜĜ": 578,
      "ĔĜ": 579,
      "ĚĜĝĜĜĜĜĜĜĜĜĜĜĜĜĜĜĜĜĜĜĜĜĜĜĜĜĜĜĜĜĜĜĜĜĜĜĜĜĜĜĜĜĜĜĜĜĜĜ": 580,
      "#Ě": 581,
      "ĞĜĜĜĜĜĜĜĜĜĜĜĜĜĜĜĜĜĜĜĜĜĜĜĜĜĜĜĜĜĜĜĜĜĜĜĜĜĜĜĜĜĜĜĜĜĜĜĜ": 582,
      "ğĜĜ": 583,
      "ĜĜěĜĜĜĜĜĜĜĜĜĜĜĜĜĜĜĜĜĜĜĜĜĜĜĜĜĜĜĜĜĜĜĜĜĜĜĜĜĜĜĜĜ": 584,
      "ěěĜ": 585,
      "ĜĚĞ": 586,
      "Ĝğĝ": 587,
      "Ġė": 588,
      "ĜĜĜĜěĜĜĜĜĜĜĜĜĜĜĜĜĜĜĜĜĜĜĜĜĜĜĜĜĜĜĜĜĜĜĜĜĜĜĜĜĜĜĜ": 589,
      "ĝĝĝ": 590,
      "ĚĀ": 591,
      "ĜĜĜĜĜĜĜĜĜĝĜĜĜĜĜĜĜĜĜĜĜĜĜĜĜĜĜĜĜĜĜĜĜĜĜĜĜĜĜĜĜĜĜĜĜĜĜĜĜ": 592,
      "ĜĜĜĂ": 593,
      "ĜĖĜ": 594,
      "ĜĜĜĜĜĜĜěĜĜĜĜĜĜĜĜĜĜĜĜĜĜĜĜĜĜĜĜĜĜĜĜĜĜĜĜĜĜĜĜĜĜĜĜĜĜĜ": 595,
      "ęĜĜĜĜĜĜĕĜĜĜĜĜĜĚĜĜĜĜĜĜ": 596,
      "ĜĜĜĜĜĜ%ĜĜĜĜĜĜĔĜĜĜĜĜĜ#ĜĜĜĜĜĜĖĜĜĜĜĜĜ": 597,
      "\"Ĝė": 598,
      "ĞĜĜĀ": 599,
      "ĠĘ": 600,
      "ĝĝĝĜĜĜĜĜĜĜĜĜĜĜĜĜĜĜĜĜĜĜĜĜĜĜĜĜĜĜĜĜĜĜĜĜĜĜĜĜĜĜĜĜĜĜĜĜĜ": 601,
      "ĚĜěĜĜĜĜĜĜĜĜĜĜĜĜĜĜĜĜĜĜĜĜĜĜĜĜĜĜĜĜĜĜĜĜĜĜĜĜĜĜĜĜĜĜĜĜĜĜ": 602,
      "ĜĜĜĜĜĜĜĜĜĜĜĜĜěĜĜĜĜĜĜĜĜĜĜĜĜĜĜĜĜĜĜĜĜĜĜĜĜĜĜĜĜĜĜĜĜ": 603,
      "Ĝěğ": 604,
      "ĜĜĜĜĜĚ": 605,
      "ĜĜĜĜĜěĜĜĜĜĜĜĜĜĜĜĜĜĜĜĜĜĜĜĜĜĜĜĜĜĜĜĜĜĜĜĜĜĜ": 606,
      "ĜěĜĜĜĜĜĜĜĜĜĜĜĜĜĜĜĜĜĜĜĜĜĜĜĜĜĜĜĜĜĜĜĜ": 607,
      "ĜĜĝĜĜĜĜĜĜĝĜĜĜĜĜĜĜĜĜĜĜĜĜĜĜĜĜĜĜĜĜĜĜĜĜĜĜĜĜĜĜĜĜĜĜĜĜĜĜ": 608,
      "ĚĘ": 609,
      "ĜĜĜĜĜĞ": 610,
      "ĞĜĜĜ": 611,
      "\"ĜĜĜ": 612,
      "&ĜĜĜ": 613,
      "ďĜĜĜĜĜĜĖĜĜĜĜĜĜĜĜĜĜĜĜĜ": 614,
      "ĖĜĝĜĀ": 615,
      "ĝ!": 616,
      "ĝĝě": 617,
      "&ğ": 618,
      "ěė": 619,
      "Ěę": 620,
      "ĝĜĜĜĝ": 621,
      "ěĜĜĀĜĜĜĜĜĜĜĜĜĜĜĜĜĜĜĜĜĜĜĜĜĜĜĜĜĜĜĜĜĜĜĜĜĜĜĜĜĜĜĜĜĜĜĜĜĜĜĜĜ": 622,
      "Ĝ!Ĝ": 623,
      "$ĜĜĜĜĜĜ#ĜĜĜĜĜĜ\"ĜĜĜĜĜĜ": 624,
      "%ĜĜĜ": 625,
      "ğĜę": 626,
      "\"!": 627,
      "Ĝĝğ": 628,
      "ĜĝĜĜĀ": 629,
      "ĞĘ": 630,
      "ĜĜĜĕ": 631,
      "ĔĜĜěĀ": 632,
      "Ġē": 633,
      "#!": 634,
      "Ěğ": 635,
      "ěĜĜĜĜĜĜĝĜĜĜĜĜĜĜĜĜĜĜĜĜĜĜĜĜĜĜĜĜĜĜĜĜĜĜĜĜĜĜĜĜĜĜĜĜĜĜĜĜ": 636,
      "ĜĜĜĜĝĜĜĜĜĜĜĜĜĜĜĜĜĜĜĜĜĜĜĜĜĜĜĜĜĜĜĜĜĜĜĜĜĜĜĜĜĜĜĜ": 637,
      "$!": 638,
      "ďĜĜĜĀ": 639,
      "ĕĜĜěĀ": 640,
      "\"Ĝ": 641,
      "ĜĜĚĜĜĜ": 642,
      "$ĜĜĜ": 643,
      "ğĜě": 644,
      "/ĜĜĜ": 645,
      "ĜĜĝĜ": 646,
      "ĜĝĜĜĜ": 647,
      "ĜēĜĜĜĀ": 648,
      "ĜĜĜĜĜĜĝĜĜĜĜĜĜĝĜĜĜĜĜĜĜĜĜĜĜĜĜĜĜĜĜĜĜĜĜĜĜĜĜĜĜĜĜĜĜĜ": 649,
      "ĜĜĜĜĜěĜĜĜĜĜĜĜĜĜĜĜĜĜĜĜĜĜĜĜĜĜĜĜĜĜĜĜĜĜĜĜĜĜĜĜĜĜĜĜ": 650,
      "ĠĖ": 651,
      "ĜĜĜĀĜĜ": 652,
      "ĜĜĜĜĝĜěĜĜĜĜĜĜĜĜĜĜĜĜĜĜĜĜĜĜĜĜĜĜĜĜĜĜĜĜĜĜĜĜ": 653,
      "ĜĜĜĜĜĜĜĜĜě": 654,
      "ěĚĜ": 655,
      "ĞĜĘ": 656,
      "ĞĜĞ": 657,
      "ĜĝĜ.": 658,
      "ĜĜěĜĜĜĜĜĜěĜĜĜĜĜĜĜĜĜĜĜĜĜĜĜĜĜĜĜĜĜĜĜĜĜĜĜĜĜĜĜĜĜĜĜĜĜĜĜ": 659,
      "!!": 660,
      "ĝĜė": 661,
      "ĜĜĜĜĜĜ)ĜĜĜĜĜĜĖĜĜĜĜĜĜĜĜĜĜĜĜĜ": 662,
      "ěĝĜ": 663,
      "ĜĖĜĜĜĀĜĜĜĜĜĜĜĜĜĜĜĜĜĜĜĜĜĜĜĜĜĜĜĜĜĜĜĜĜĜĜĜĜĜĜĜĜĜĜĜĜĜĜĜĜĜĜĜĜ": 664,
      "ĜĜĜĜĜĜĜĜěĜĜĜĜĜĜĜĜĜĜĜĜĜĜĜĜĜĜĜĜĜĜĜĜĜĜĜĜĜĜĜĜĜĜĜĜĜĜĜ": 665,
      "ĜĜĝĜĜĜĜĜĜĜĜĜĜĜĜĜĜĜĜĜĜĜĜĜĜĜĜĜĜĜĜĜĜĜĜĜĜĜĜĜĜĜĜĜ": 666,
      "Ġ\"": 667,
      "Ĝęĝ": 668,
      "ĜĞěĀ": 669,
      "ĝĜĜĜĜĜĜěĜĜĜĜĜĜĜĜĜĜĜĜĜĜĜĜĜĜĜĜĜĜĜĜĜĜĜĜĜĜĜĜĜĜĜĜĜĜĜĜĜ": 670,
      "ğĜĜĜ": 671,
      "ğĜĚ": 672,
      "Ęě": 673,
      "ĝĚĜ": 674,
      "ĒĜĜĜ": 675,
      "ĜĜĜĜěĜĜĜĜĜĜĜĜĜĜĜĜĜĜĜĜĜĜĜĜĜĜĜĜĜĜĜĜĜĜĜĜĜĜĜĜĜĜĜĜĜĜĜĜ": 676,
      "ĚěĞ": 677,
      "ĜĜĝĜĝ": 678,
      "ěěě": 679,
      "ĜĜĜĜę": 680,
      "ĐĜĝĜĀ": 681,
      "ĜĜĜĜĜĜĝĜĜĜĜ": 682,
      "ĜĜĜĜěĜěĜĜĜĜĜĜĜĜĜĜĜĜĜĜĜĜĜĜĜĜĜĜĜĜĜĜĜĜĜĜĜĜĜĜĜĜĜĜĜ": 683,
      "ĠĜě": 684,
      "ēĜĜĜĜĜĜĜĜĜĜĜĜĜ\"ĜĜĜĜĜĜĜĜĜĜĜĜĜė": 685,
      "ěěĞ": 686,
      "Ėě": 687,
      "ĜĜĜĜĜĜĜĜĜĜĜĝĜĜĜĜĜĜĜĜĜĜĜĜĜĜĜĜĜĜĜĜĜĜĜĜĜĜĜĜĜĜĜĜĜĜ": 688,
      "$Ě": 689,
      "ĘĚ": 690,
      "ĜĜĜĜĜĜĜĜĜĜĜĜĜěĜĜĜĜĜĜĜĜĜĜĜĜĜĜĜĜĜĜĜĜĜĜĜĜĜ": 691,
      "ĝė": 692,
      "ĜĞĝĀ": 693,
      "ĜĜĜĜĝě": 694,
      "!Ĝė": 695,
      "!Ę": 696,
      "Ĝĝę": 697,
      "ĜĜĜĜĜĜĜĜĝĜĜĜĜĜĜĜĜĜĜĜĜĜĜĜĜĜĜĜĜĜĜĜĜĜĜĜĜĜĜĜĜĜĜĜĜĜĜĜ": 698,
      "ĝĜĞĜĜĜĜĜĜĜĜĜĜĜĜĜĜĜĜĜĜĜĜĜĜĜĜĜĜĜĜĜĜĜĜĜĜĜĜĜĜĜĜĜĜĜĜĜĜ": 699,
      "ĜĝĜ&": 700,
      "ĔĜĜĝĀ": 701,
      "ğĜĘ": 702,
      "ďĜĜĜĜĜĜ\"ĜĜĜĜĜĜĜĜĜĜĜĜĜ": 703,
      "ĜĞĜĀĜĜĜĜĜĜĜĜĜĜĜĜĜĜĜĜĜĜĜĜĜĜĜĜĜĜĜĜĜĜĜĜĜĜĜĜĜĜĜĜĜĜĜĜĜĜĜĜĜ": 704,
      "ĕĜĜĝĀ": 705,
      "!ĜĜĜ": 706,
      "ĝ\"": 707,
      "ĝ#": 708,
      "ēĜĜĝĀ": 709,
      "Ĝęě": 710,
      "ĠĜĘ": 711,
      "ĜĜğĜĜĜĜĜĜĜĜĜĜĜĜĜĜĜĜĜĜĜĜĜĜĜĜĜĜĜĜĜĜĜĜĜĜĜĜĜĜĜĜĜĜĜĜĜĜ": 712,
      "ďĜĜĜĜĜĜ\"ĜĜĜĜĜĜĜĜĜĜĜĜĜĘĜĜĜĜĜĜ!ĜĜĜĜĜĜĘ": 713,
      "ęĜğ": 714,
      "#ĜĜĜ": 715,
      "ĜĞĝĜĜĜĜĜĜĜĜĜĜĜĜĜĜĜĜĜĜĜĜĜĜĜĜĜĜĜĜĜĜĜĜĜĜĜĜĜĜĜĜĜĜĜĜĜĜ": 716,
      "ėĜĝĜĀ": 717,
      "Ğěě": 718,
      "ĀĜĜĝĜĜĜĜĜĜĜĜĜĜĜĜĜĜĜĜĜĜĜĜĜĜĜĜĜĜĜĜĜĜĜĜĜĜĜĜĜĜĜĜĜĜĜĜĜĜ": 719,
      "ěĝě": 720,
      "ĜĜĜĚ": 721,
      "ĜĜĞĜĜĜĜĜĜěĜĜĜĜĜĜĜĜĜĜĜĜĜĜĜĜĜĜĜĜĜĜĜĜĜĜĜĜĜĜĜĜĜĜĜĜĜĜĜ": 722,
      "ēĜĜěĀ": 723,
      "ěĜę": 724,
      "\"ĜĘ": 725,
      "ĒĜĜĜĜĜĜ%ĜĜĜĜĜĜĔĜĜĜĜĜĜ#ĜĜĜĜĜĜĖĜĜĜĜĜĜ": 726,
      "ĜĜĜ&": 727,
      "ĜĜěĜĜĜĜĜĜĝĜĜĜĜĜĜĜĜĜĜĜĜĜĜĜĜĜĜĜĜĜĜĜĜĜĜĜĜĜĜĜĜĜĜĜĜĜĜĜ": 728,
      "ěĚĝ": 729,
      "ĚĜĜĜĜĜĜĜĜĜĜĜĜĜĜĜĜĜĜĜĜĜĜĜĜĜĜĜĜĜĜĜĜĜĜĜĜĜĜĜĜĜĜĜĜĜĜ": 730,
      "Ęĝ": 731,
      "ĝĜĜĜĜĜĜĝĜĜĜĜĜĜĜĜĜĜĜĜĜĜĜĜĜĜĜĜĜĜĜĜĜĜĜĜĜĜĜĜĜĜĜĜĜĜĜĜĜ": 732,
      "ĞĜė": 733,
      "ĜĜĚĀĜĜĜĜĜĜĜĜĜĜĜĜĜĜĜĜĜĜĜĜĜĜĜĜĜĜĜĜĜĜĜĜĜĜĜĜĜĜĜĜĜĜĜĜĜĜĜĜĜ": 734,
      "ĜĜĜĜĜĜĜĜĝĜĜĜĜĜĜĜĜĜĜĜĜĜĜĜĜĜĜĜĜĜĜĜĜĜĜĜĜĜĜĜĜ": 735,
      "ėě": 736,
      "ĠĜė": 737,
      "ĝěĜĜĜĜ": 738,
      "ĜĚĞĜĜĜĜĜĜĜĜĜĜĜĜĜĜĜĜĜĜĜĜĜĜĜĜĜĜĜĜĜĜĜĜĜĜĜĜĜĜĜĜĜĜĜĜĜĜ": 739,
      "ěěěĜĜĜĜĜĜĜĜĜĜĜĜĜĜĜĜĜĜĜĜĜĜĜĜĜĜĜĜĜĜĜĜĜĜĜĜĜĜĜĜĜĜĜĜĜĜ": 740,
      "#\"": 741,
      "ĜĜĜĜĜĜ%ĜĜĜĜĜĜğĜĜĜĜĜĜĕĜĜĜĜĜĜĞĜĜĜĜĜĜ": 742,
      "ĜĜĜĜěĜě": 743,
      "ĜĞğ": 744,
      "ĜĜĜěĜĜĜĜĜĜĜĜĜĜĜĜĜĜĜĜĜĜĜĜĜĜĜĜĜĜĜĜĜĜĜĜĜĜĜĜĜĜĜĜĜĜĜ": 745,
      "ęę": 746,
      "ĜěĜĜ": 747,
      "ĜĜ/": 748,
      "ĜĜěĜĝ": 749,
      "ĜĜěĜĜĜĜĜĜĜĜĜĜĜĜĜĜĜĜĜĜĜĜĜĜĜĜĜĜĜĜĜĜĜĜĜĜĜĜĜĜĜĜĜĜĜĜ": 750,
      "Ğěĝ": 751,
      "ĝ$": 752,
      "ĜĜĜę": 753,
      "ĠĜę": 754,
      "ĜĜ.": 755,
      "ĜĜĜ.": 756,
      "ēĜ": 757,
      "ĞĜĜĜĜĜ": 758,
      "ěĝĞ": 759,
      "ĠĜĚ": 760,
      "ĜĜĜĜěĝ": 761,
      "%!": 762,
      "ĝĝĜĀ": 763,
      "ĜĜĜĜĜĜěĜĜĜĜĜĜĜĜĜĜĜĜĜĜĜĜĜĜĜĜĜĜĜĜĜĜĜĜĜĜĜĜĜ": 764,
      "ĜĜĜĜĜěěĜĜĜĜĜĜĜĜĜĜĜĜĜĜĜĜĜĜĜĜĜĜĜĜĜĜĜĜĜĜĜĜĜĜĜĜĜĜĜ": 765,
      "!ĜĘ": 766,
      "ĜĜĖ": 767,
      "ğ!": 768,
      "ğĜė": 769,
      "Ĝěę": 770,
      "ĝĝĜ": 771,
      "ĜĔĜĜĜĀĜĜĜĜĜĜĜĜĜĜĜĜĜĜĜĜĜĜĜĜĜĜĜĜĜĜĜĜĜĜĜĜĜĜĜĜĜĜĜĜĜĜĜĜĜĜĜĜĜ": 772,
      "ğ\"": 773,
      "ĠĔ": 774,
      "ĜĜĜĜĜĜĜĜĜĝ": 775,
      "Ěěě": 776,
      "ĜĜĜĜĝĜĝ": 777,
      "ğĘ": 778,
      "ěĜĚĜĜĜĜĜĜĜĜĜĜĜĜĜĜĜĜĜĜĜĜĜĜĜĜĜĜĜĜĜĜĜĜĜĜĜĜĜĜĜĜĜĜĜĜĜĜ": 779,
      "ĜĜĜĜĜĞĝ": 780,
      "ěĜĞĀ": 781,
      "#ę": 782,
      "ĜĜĜĜĜĜĜĜĜĜĜĜĜĝĜĜĜĜĜĜĜĜĜĜĜĜĜĜĜĜĜĜĜĜĜĜĜĜĜ": 783,
      "ĜĜĜĝĀ": 784,
      "ĜēĜĜĜĀĜĜĜĜĜĜĜĜĜĜĜĜĜĜĜĜĜĜĜĜĜĜĜĜĜĜĜĜĜĜĜĜĜĜĜĜĜĜĜĜĜĜĜĜĜĜĜĜĜ": 785,
      "ĜĜĜĜĜĜěĜĜĜĜĜĜěĜĜĜĜĜĜĜĜĜĜĜĜĜĜĜĜĜĜĜĜĜĜĜĜĜ": 786,
      "$ě": 787,
      "ĠĒ": 788,
      "ĜĜĜĜĜĜĝĜĜĜĜĜĜěĜĜĜĜĜĜĜĜĜĜĜĜĜĜĜĜĜĜĜĜĜĜĜĜĜĜĜĜĜĜĜĜ": 789,
      "#Ĝė": 790,
      "ĠĜĜ": 791,
      "ĜěĜĝ": 792,
      "ĜĒĜĜĜĀ": 793,
      "ĐĜĜĜĀĜĜĜĜĜĜĜĜĜĜĜĜĜĜĜĜĜĜĜĜĜĜĜĜĜĜĜĜĜĜĜĜĜĜĜĜĜĜĜĜĜĜĜĜĜĜĜĜĜ": 794,
      "ěĞĝ": 795,
      "%ĜĜĜĜĜĜğĜĜĜĜĜĜĕĜĜĜĜĜĜĞĜĜĜĜĜĜ": 796,
      "ĜęĞ": 797,
      "ĜĝĞĀ": 798,
      "ěĜĜě": 799,
      "!Ĝĕ": 800,
      "ĠĜĕ": 801,
      "ĜĜĜ*": 802,
      "ĜĜĜĎ": 803,
      "ĜĜĜĜĜĜĜĜĜĜĜĜĜĚ": 804,
      "ĜĚğ": 805,
      "ĜěĜĜěĜĜĜĜĜĜĜĜĜĜĜĜĜĜĜĜĜĜĜĜĜĜĜĜĜĜĜĜĜĜĜĜĜĜĜĜĜĜĜĜĜ": 806,
      "ĠĜĜĜĀ": 807,
      "ēĜĜĜĜĜĜğĜĜĜĜĜĜ#ĜĜĜĜĜĜĞĜĜĜĜĜĜĘĜĜĜĜĜĜė": 808,
      "\"Ę": 809,
      "\"ĜĖ": 810,
      "\"Ĝĕ": 811,
      "ėĚ": 812,
      "Ğĝĝ": 813,
      "ĜĜĜĜĜĜěě": 814,
      "ĜđĜĜĜĀ": 815,
      "ĀĖ": 816,
      "Ġ#": 817,
      "ĖĜĜěĀ": 818,
      "Ġđ": 819,
      "ĜĜĜď": 820,
      "ęĘ": 821,
      "ĜĝĜĜĞ": 822,
      "ĜĜ-": 823,
      "ĜĜĜĜĜĜĝĜĜĜĜĜĜĜĜĜĜĜĜĜĜĜĜĜĜĜĜĜĜĜĜĜĜĜ": 824,
      "ĜĜěĜĜĜ\"": 825,
      "ĚĝĜĜĜĜĜĜĜĜĜĜĜĜĜĜĜĜĜĜĜĜĜĜĜĜĜĜĜĜĜĜĜĜĜĜĜĜĜĜĜĜĜĜĜĜĜĜĜ": 826,
      "ĝĜĜĜĜĜĜĜĜĜĜĜĜĜĜĜĜĜĜĜĜĜĜĜĜĜĜĜĜĜĜĜĜĜĜĜĜĜĜĜĜĜĜĜĜĜ": 827,
      "ĝěĜĀ": 828,
      "ęĜě": 829,
      "ĜĜĜĘ": 830,
      "ĜĜĝĜĜĜĕ": 831,
      "#ĜĘ": 832,
      "'ĝ": 833,
      "Ğ!": 834,
      "Ěė": 835,
      "ĚĝĞ": 836,
      "ěěĜĀ": 837,
      "ĠĜĀ": 838,
      "!\"": 839,
      "\"\"": 840,
      "ĜĚĚ": 841,
      "Ġĕ": 842,
      "ĜĜĜć": 843,
      "ĜĝĜĀěĜĜĜĜĜĜĜĜĜĜĜĜĜĜĜĜĜĜĜĜĜĜĜĜĜĜĜĜĜĜĜĜĜĜĜĜĜĜĜĜĜĜĜĜĜĜĜĜ": 844,
      "ĜĝĜĀĜĜěĜĜĜĜĜĜĜĜĜĜĜĜĜĜĜĜĜĜĜĜĜĜĜĜĜĜĜĜĜĜĜĜĜĜĜĜĜĜĜĜĜĜĜĜĜĜ": 845,
      "ĒĜĜěĀ": 846,
      "ĜĜĜĜĜĝĜĜĜĜĜĜĜĜĜĜĜĜĜĜĜĜĜĜĜĜĜĜĜĜĜĜĜĜĜĜĜĜĜĜĜĜĜĜĜ": 847,
      "ĜĜĜĜĜĜĜĜĜĜĜĜĜ%ĜĜĜĜĜĜĜĜĜĜĜĜĜĖĜĜĜĜĜĜĜĜĜĜĜĜĜ!": 848,
      "!ĜĖ": 849,
      "%ĜĜěĜĜĜ": 850,
      "ĝĜğ": 851,
      "ĜĜĝĜě": 852,
      "!ė": 853,
      "ĜĜĝě": 854,
      "ĜĝĜĜĜĜĞ": 855,
      "đĜ": 856,
      "ĜĜĜ#": 857,
      "ěěĜĜĜĜĜĜĜĜĜĜĜĜĜĜĜĜĜĜĜĜĜĜĜĜĜĜĜĜĜĜĜĜĜĜĜĜĜĜĜ": 858,
      "ĒĜĜĝĀ": 859,
      "ĘĜĜĜĀĜĜĜĜĜĜĜĜĜĜĜĜĜĜĜĜĜĜĜĜĜĜĜĜĜĜĜĜĜĜĜĜĜĜĜĜĜĜĜĜĜĜĜĜĜĜĜĜĜ": 860,
      "ĚĜĜĜě": 861,
      "%ĜĜĜĜĜĜĔĜĜĜĜĜĜ#ĜĜĜĜĜĜĖĜĜĜĜĜĜ": 862,
      "#ĜĔ": 863,
      "'Ğ": 864,
      "ğ#": 865,
      "!ĜĔ": 866,
      "$ę": 867,
      "ĝęĜ": 868,
      "ĜĜĜĜĜĜěĜĜĜĜĜĜĜĜĜĜĜĜĜĜĜĜĜĜĜĜĜĜĜĜĜĜĜ": 869,
      "%ě": 870,
      "ĜĜĝĜĜĜĜĜĜĜĜ": 871,
      "ĜĜĜĜĜěĝĜĜĜĜĜĜĜĜĜĜĜĜĜĜĜĜĜĜĜĜĜĜĜĜĜĜĜĜĜĜĜĜĜĜĜĜĜĜĜ": 872,
      "đĜĜĜĀĜĜĜĜĜĜĜĜĜĜĜĜĜĜĜĜĜĜĜĜĜĜĜĜĜĜĜĜĜĜĜĜĜĜĜĜĜĜĜĜĜĜĜĜĜĜĜĜĜ": 873,
      "ĜěğĜĜĜĜĜĜĜĜĜĜĜĜĜĜĜĜĜĜĜĜĜĜĜĜĜĜĜĜĜĜĜĜĜĜĜĜĜĜĜĜĜĜĜĜĜĜ": 874,
      "#ĜĖ": 875,
      "ĜĜĝĜĜĜĜĜĜĜĜĜĜ": 876,
      "ĜĜĜĜĜĜĜĜěĜĜĜĜĜĜĜĜĜĜĜĜĜĜĜĜĜĜĜĜĜĜĜĜĜĜĜĜĜĜĜĜ": 877,
      "ĝĖ": 878,
      "ĜĜĜĜĜĝĜĜĜĜĜĜĜĜĜĜĜĜĜĜĜĜĜĜĜĜĜĜĜĜĜĜĜĜĜĜĜĜĜĜ": 879,
      "ēĜĜĜĜĜĜĔĜĜĜĜĜĜĕĜĜĜĜĜĜĖĜĜĜĜĜĜĘĜĜĜĜĜĜĚ": 880,
      "ĜĜĜĜĜĝěĜĜĜĜĜĜĜĜĜĜĜĜĜĜĜĜĜĜĜĜĜĜĜĜĜĜĜĜĜĜĜĜĜĜĜĜĜĜĜ": 881,
      "$Ĝĕ": 882,
      "ĚěĜĜĜĜĜĜĜĜĜĜĜĜĜĜĜĜĜĜĜĜĜĜĜĜĜĜĜĜĜĜĜĜĜĜĜĜĜĜĜĜĜĜĜĜĜĜĜ": 883,
      "ĜĜĜĞ": 884,
      "ĜĜěĜě": 885,
      "ĝĝĜĜĜĜ": 886,
      "ěĚĞ": 887,
      "\"ĜĜĜĜĜĜĜĜĜĜĜĜĜĘĜĜĜĜĜĜ!ĜĜĜĜĜĜĘ": 888,
      "#Ĝĕ": 889,
      "ĜĜĜĜĜĀ": 890,
      "ĜĜĜĜěĜğ": 891,
      "ĕĜĜĜĀĜěĜĜĜĜĜĜĜĜĜĜĜĜĜĜĜĜĜĜĜĜĜĜĜĜĜĜĜĜĜĜĜĜĜĜĜĜĜĜĜĜĜĜĜĜĜĜĜ": 892,
      "ĜĜĘĀ": 893,
      "ĝĜĖ": 894,
      "ēĜĞĜĀ": 895,
      "Ğ#": 896,
      "Ğė": 897,
      "ĠĜĖ": 898,
      "ěĞĜ": 899,
      "ēĜĜĜĜĜĜ$ĜĜĜĜĜĜĕĜĜĜĜĜĜ\"ĜĜĜĜĜĜĘĜĜĜĜĜĜĞ": 900,
      "\"ė": 901,
      "ĎĜĜĜĀ": 902,
      "ĜĜĝĜĜĜĜěĜĜĜĜĜĜĜĜĜĜĜĜĜĜĜĜĜĜĜĜĜĜĜĜĜĜĜĜĜĜĜĜĜĜĜĜĜĜĜĜĜ": 903,
      "ĜĜĞĀĜĜĜĜĜĜĜĜĜĜĜĜĜĜĜĜĜĜĜĜĜĜĜĜĜĜĜĜĜĜĜĜĜĜĜĜĜĜĜĜĜĜĜĜĜĜĜĜĜ": 904,
      "ĜĜĜĝĜĜĜĜĜĜĜĜĜĜĜĜĜĜĜĜĜĜĜĜĜĜĜĜĜĜĜĜĜĜĜĜĜĜĜĜĜĜĜĜĜĜĜ": 905,
      "ěěĜĜĜĜ": 906,
      "ĜĜĜĜĜĝĜĜĜĜĜĜĜĜĜĜĜĜĜĜĜĜĜĜĜĜĜĜĜĜĜĜĜĜĜĜĜĜĜ": 907,
      "ĜĜĝĜĜĜ#": 908,
      ")ĜĜĜĜĜĜ\"ĜĜĜĜĜĜĜĜĜĜĜĜĜ": 909,
      "!ĜĜĜĀ": 910,
      "ĜĜěĜĜě": 911,
      "ĜĜĜĜĜĜĝĝ": 912,
      "ěĜĝĜĜĜĜĝĜĜĜĜĜĜĜĜĜĜĜĜĜĜĜĜĜĜĜĜĜĜĜĜĜĜĜĜĜĜĜĜĜĜĜĜĜĜĜĜĜ": 913,
      "ĜĜĜěĜĜĜĜĜĜĜĜĜĜĜĜĜĜĜĜĜĜĜĜĜĜĜĜĜĜĜĜĜĜĜĜĜĜĜĜĜĜĜ": 914,
      "ĜĜĜĜĜĜĜĜĜĜĜĜĜěĜĜĜĜĜĜĜĜĜĜĜĜĜĜĜĜĜĜ": 915,
      "ĞěĜ": 916,
      "ğĜĜĀ": 917,
      "'ĜĜĜĀ": 918,
      "ğĜĞ": 919,
      "ĠĜē": 920,
      "!Ĝę": 921,
      "$ĜĜĜĀ": 922,
      "ĞĜĖ": 923,
      "ĜĜĜěĜĜĜĜĜĜĜĜĜĜĜĜĜĜĜĜĜĜĜĜĜĜĜĜĜĜĜĜĜĜĜĜĜĜĜĜĜĜĜĜĜ": 924,
      "ğĜĕ": 925,
      "ĜĝĚĀ": 926,
      "ĒĜ": 927,
      "ĝ%": 928,
      "ĜĝĜĜ": 929,
      "ĕĜĜĜĀĜĜĝĜĜĜĜĜĜĜĜĜĜĜĜĜĜĜĜĜĜĜĜĜĜĜĜĜĜĜĜĜĜĜĜĜĜĜĜĜĜĜĜĜĜĜĜĜĜ": 930,
      "ĜĝĜĜĜĜĝĜĜĜĜĜĜĜĜĜĜĜĜĜĜĜĜĜĜĜĜĜĜĜĜĜĜĜĜĜĜĜĜĜĜĜĜĜĜĜ": 931,
      ")ĜĜĜĜĜĜ\"ĜĜĜĜĜĜĜĜĜĜĜĜĜĘĜĜĜĜĜĜėĜĜĜĜĜĜĘ": 932,
      "&ĜĜĜĀ": 933,
      "ēĜĜěĜĜĜ": 934,
      "ĕē": 935,
      "ĜĜĜĜĜĜěĜĜĜĜĜĜĝĜĜĜĜĜĜĜĜĜĜĜĜĜĜĜĜĜĜĜĜĜĜĜĜĜ": 936,
      "ėę": 937,
      "ĜĜĜĜĜĜĝĜĜĜĜĜ": 938,
      "ĜĜĜĜĜĝĝĜĜĜĜĜĜĜĜĜĜĜĜĜĜĜĜĜĜĜĜĜĜĜĜĜĜĜĜĜĜĜĜĜĜĜĜĜĜĜ": 939,
      "!Ĝē": 940,
      "Ğ$": 941,
      "ěĝĜĀ": 942,
      "ĝĜĝĜĜĜ": 943,
      "ĜĝĜĜĜĜĝĜĜĜĜĜĜĜĜĜĜĜĜĜĜĜĜĜĜĜĜĜĜĜĜĜĜĜĜĜĜĜĜĜĜ": 944,
      "ěĜĜĜěĜĜĜĜĜĜĜĜĜĜĜĜĜĜĜĜĜĜĜĜĜĜĜĜĜĜĜĜĜĜĜĜĜĜĜĜĜĜĜĜĜĜĜĜ": 945,
      "\"ĜĜĜĀ": 946,
      "ėĜĜĝĀ": 947,
      "ĘĘ": 948,
      "\"ĜĔ": 949,
      "ĜĜĜĜĜĜěĜĜĜĜĜĜĜĜĜĜĜ": 950,
      "ĝěĚ": 951,
      "ĖĜĜĜĀĜĝĜĜĜĜĜĜĜĜĜĜĜĜĜĜĜĜĜĜĜĜĜĜĜĜĜĜĜĜĜĜĜĜĜĜĜĜĜĜĜĜĜĜĜĜĜĜĜ": 952,
      "đĜĜěĀ": 953,
      "Ğĝě": 954,
      "ĜĜĝĜĜĜĝ": 955,
      "ĜĜĜĜěĜĚ": 956,
      "ĜĜĜēĜĜěĜĜĜ": 957,
      "Ęę": 958,
      "ĚěĜ": 959,
      "ğė": 960,
      "ğĜĖ": 961,
      "!#": 962,
      "ěĝĞĜĜĜĜĜĜĜĜĜĜĜĜĜĜĜĜĜĜĜĜĜĜĜĜĜĜĜĜĜĜĜĜĜĜĜĜĜĜĜĜĜĜĜĜĜĜ": 963,
      "ĜĜĞĜ": 964,
      "ěĚĝĜĜĜĜĜĜĜĜĜĜĜĜĜĜĜĜĜĜĜĜĜĜĜĜĜĜĜĜĜĜĜĜĜĜĜĜĜĜĜĜĜĜĜĜĜĜ": 965,
      "ĖĜĜĜĀĜĜĝĜĜĜĜĜĜĜĜĜĜĜĜĜĜĜĜĜĜĜĜĜĜĜĜĜĜĜĜĜĜĜĜĜĜĜĜĜĜĜĜĜĜĜĜĜĜ": 966,
      "#ĜĜĜĀ": 967,
      "ĖĜĜĝĀ": 968,
      "ĖĚ": 969,
      "ěěĜĜĜĜĜĜĜĜĜĜĜĜĜĜĜĜĜĜĜĜĜĜĜĜĜĜĜĜĜĜĜĜĜĜĜĜĜĜĜĜĜĜĜĜ": 970,
      "ēĜĜĜĜĜĜęĜĜĜĜĜĜ#ĜĜĜĜĜĜĚĜĜĜĜĜĜĘĜĜĜĜĜĜ!": 971,
      "$Ĝė": 972,
      "ĜĜĜĜĝĝě": 973,
      "ĜĜĜĜĀĜĞĜĜĜĜĜĜĜĜĜĜĜĜĜĜĜĜĜĜĜĜĜĜĜĜĜĜĜĜĜĜĜĜĜĜĜĜĜĜĜĜĜĜĜĜĜĜĜ": 974,
      "#Ĝ": 975,
      "*ĜĜĜĀ": 976,
      "ďĜ": 977,
      "ĘĜĞ": 978,
      "ĜĜĜĜĀĜěĜĜĜĜĜĜĜĜĜĜĜĜĜĜĜĜĜĜĜĜĜĜĜĜĜĜĜĜĜĜĜĜĜĜĜĜĜĜĜĜĜĜĜĜĜĜĜ": 979,
      "ĕĜĜĜĀĜĝĜĜĜĜĜĜĜĜĜĜĜĜĜĜĜĜĜĜĜĜĜĜĜĜĜĜĜĜĜĜĜĜĜĜĜĜĜĜĜĜĜĜĜĜĜĜĜ": 980,
      "Ĕě": 981,
      "ęĜĜ": 982,
      "ěęĜ": 983,
      "Ğ\"": 984,
      "ĞĜĔ": 985,
      "ĚĜę": 986,
      "ĝ&": 987,
      "ĜĘĜĀ": 988,
      "$ĜĖ": 989,
      "ĔĜĜĜĀĜĜěĜĜĜĜĜĜĜĜĜĜĜĜĜĜĜĜĜĜĜĜĜĜĜĜĜĜĜĜĜĜĜĜĜĜĜĜĜĜĜĜĜĜĜĜĜĜ": 990,
      "ĘĜĜĜĀĜĜĝĜĜĜĜĜĜĜĜĜĜĜĜĜĜĜĜĜĜĜĜĜĜĜĜĜĜĜĜĜĜĜĜĜĜĜĜĜĜĜĜĜĜĜĜĜĜ": 991,
      "ĝĜĜě": 992,
      "ğĜĝ": 993,
      "ğĜē": 994,
      "ĞĜĝĜĜĜĜĜĜĜĜĜĜĜĜĜĜĜĜĜĜĜĜĜĜĜĜĜĜĜĜĜĜĜĜĜĜĜĜĜĜĜĜĜĜĜĜĜĜ": 995,
      "ėĜĜĜĀĜĜĝĜĜĜĜĜĜĜĜĜĜĜĜĜĜĜĜĜĜĜĜĜĜĜĜĜĜĜĜĜĜĜĜĜĜĜĜĜĜĜĜĜĜĜĜĜĜ": 996,
      "ĜĜĜĜĜĜĜĜĜĜĜĜĜĞ": 997,
      "ęěĝ": 998,
      "ğ$": 999,
      "ĝĝĞ": 1000,
      ")ĜĜĜĀ": 1001,
      "#Ę": 1002,
      "%ĜĜĜĀ": 1003,
      "ěĕ": 1004,
      "ĜěĜĜĝĜĜĜĜĜĜĜĜĜĜĜĜĜĜĜĜĜĜĜĜĜĜĜĜĜĜĜĜĜĜĜĜĜĜĜĜĜĜĜĜĜ": 1005,
      "ĞĜĕ": 1006,
      "ĜĝĜĀĜĜĝĜĜĜĜĜĜĜĜĜĜĜĜĜĜĜĜĜĜĜĜĜĜĜĜĜĜĜĜĜĜĜĜĜĜĜĜĜĜĜĜĜĜĜĜĜĜ": 1007,
      "ěĜĝĜĜĜĜěĜĜĜĜĜĜĜĜĜĜĜĜĜĜĜĜĜĜĜĜĜĜĜĜĜĜĜĜĜĜĜĜĜĜĜĜĜĜĜĜĜ": 1008,
      "ĜĕĜ": 1009,
      "ĐĜ": 1010,
      "ēĝĜĜĜĜĜ": 1011,
      "ĜĜĜĜĜĝĞ": 1012,
      "ĜĝĜĕ": 1013,
      "ēě": 1014,
      "ėĝ": 1015,
      "ěĚĜĜĜĜĜĜĜĜĜĜĜĜĜĜĜĜĜĜĜĜĜĜĜĜĜĜĜĜĜĜĜĜĜĜĜĜĜĜĜĜĜĜĜĜĜĜĜ": 1016,
      "ĜĜĜĜěĜĝĜĜĜĜĜĜĜĜĜĜĜĜĜĜĜĜĜĜĜĜĜĜĜĜĜĜĜĜĜĜĜĜ": 1017,
      "!ĜĚ": 1018,
      "ėĜĜěĀ": 1019,
      "ğěě": 1020,
      "ğĜĔ": 1021,
      "ĜĜĜĜĜĚě": 1022,
      "ĕĜĜĜĀĜĜěĜĜĜĜĜĜĜĜĜĜĜĜĜĜĜĜĜĜĜĜĜĜĜĜĜĜĜĜĜĜĜĜĜĜĜĜĜĜĜĜĜĜĜĜĜĜ": 1023
    },
    "merges": [
      [
        "Ĝ",
        "Ĝ"
      ],
      [
        "ĜĜ",
        "ĜĜ"
      ],
      [
        "ĜĜĜĜ",
        "ĜĜĜĜ"
      ],
      [
        "ĜĜĜĜĜĜĜĜ",
        "ĜĜĜĜĜĜĜĜ"
      ],
      [
        "ĜĜĜĜĜĜĜĜĜĜĜĜĜĜĜĜ",
        "ĜĜĜĜĜĜĜĜĜĜĜĜĜĜĜĜ"
      ],
      [
        "ĜĜĜĜ",
        "ĜĜ"
      ],
      [
        "ĜĜ",
        "Ĝ"
      ],
      [
        "ĜĜĜĜĜĜĜĜĜĜĜĜĜĜĜĜĜĜĜĜĜĜĜĜĜĜĜĜĜĜĜĜ",
        "ĜĜĜĜĜĜĜĜ"
      ],
      [
        "Ĝ",
        "ĝ"
      ],
      [
        "Ĝ",
        "ě"
      ],
      [
        "ĜĜĜĜĜĜĜĜĜĜĜĜĜĜĜĜĜĜĜĜĜĜĜĜĜĜĜĜĜĜĜĜĜĜĜĜĜĜĜĜ",
        "ĜĜĜĜĜĜ"
      ],
      [
        "ĜĜĜ",
        "Ā"
      ],
      [
        "ĜĜĜĜĜĜĜĜĜĜĜĜĜĜĜĜĜĜĜĜĜĜĜĜĜĜĜĜĜĜĜĜ",
        "ĜĜĜĜĜĜĜĜĜĜĜĜĜĜĜĜ"
      ],
      [
        "ĜĜ",
        "ĝ"
      ],
      [
        "ĜĜ",
        "ě"
      ],
      [
        "ĜĜĜĜĜĜĜĜĜĜĜĜĜĜĜĜĜĜĜĜĜĜĜĜĜĜĜĜĜĜĜĜ",
        "ĜĜĜĜĜĜ"
      ],
      [
        "ĜĜĜĜĜĜĜĜĜĜĜĜĜĜĜĜĜĜĜĜĜĜĜĜĜĜĜĜĜĜĜĜĜĜĜĜĜĜ",
        "Ĝ"
      ],
      [
        "Ĝ",
        "Ğ"
      ],
      [
        "ĜĜĜĜĜĜĜĜĜĜĜĜĜĜĜĜĜĜĜĜĜĜĜĜĜĜĜĜĜĜĜĜĜĜĜĜĜĜĜĜĜĜĜĜĜĜĜĜ",
        "Ĝ"
      ],
      [
        "Ĝ",
        "Ā"
      ],
      [
        "ĜĜĜĜĜĜ",
        "ě"
      ],
      [
        "Ĝ",
        "Ě"
      ],
      [
        "ĜĜĜĜĜĜ",
        "ĝ"
      ],
      [
        "ĜĜĜĜ",
        "ĝ"
      ],
      [
        "ĜĜĜĜĜĜĜĜĜĜĜĜĜĜĜĜĜĜĜĜĜĜĜĜĜĜĜĜĜĜĜĜĜĜĜĜĜĜĜĜĜĜĜĜĜĜ",
        "Ĝ"
      ],
      [
        "ĜĜĜĜ",
        "ě"
      ],
      [
        "ĜĜĜĜ",
        "Ĝ"
      ],
      [
        "ĜĜĜĜĜĜĜĜĜĜĜĜĜĜĜĜĜĜĜĜĜĜĜĜĜĜĜĜĜĜĜĜĜĜĜĜĜĜĜĜ",
        "Ĝ"
      ],
      [
        "ě",
        "ĝ"
      ],
      [
        "ĝ",
        "ĝ"
      ],
      [
        "ě",
        "ě"
      ],
      [
        "ĜĜĜĜ",
        "Ĝě"
      ],
      [
        "Ĝ",
        "ę"
      ],
      [
        "ĜĜĜĜ",
        "Ĝĝ"
      ],
      [
        "Ĝ",
        "ğ"
      ],
      [
        "ĜĜĜĀ",
        "ĜĜĜĜĜĜĜĜĜĜĜĜĜĜĜĜĜĜĜĜĜĜĜĜĜĜĜĜĜĜĜĜĜĜĜĜĜĜĜĜĜĜĜĜĜĜĜĜĜ"
      ],
      [
        "Ĝĝ",
        "ĜĀ"
      ],
      [
        "ĜĜ",
        "Ğ"
      ],
      [
        "ĝ",
        "ĜĜĜĜĜĜĜĜĜĜĜĜĜĜĜĜĜĜĜĜĜĜĜĜĜĜĜĜĜĜĜĜĜĜĜĜĜĜĜĜĜĜĜĜĜĜ"
      ],
      [
        "ĜĜĝ",
        "ĜĜĜĜĜĜĜĜĜĜĜĜĜĜĜĜĜĜĜĜĜĜĜĜĜĜĜĜĜĜĜĜĜĜĜĜĜĜĜĜĜĜĜĜĜĜ"
      ],
      [
        "ě",
        "Ĝĝ"
      ],
      [
        "ĜĜĜĜĜĜĜĜĜĜĜĜĜĜĜĜ",
        "ĜĜĜĜĜĜĜĜ"
      ],
      [
        "ĜĜ",
        "Ā"
      ],
      [
        "Ĝ",
        "Ę"
      ],
      [
        "ĝ",
        "ě"
      ],
      [
        "ě",
        "ĜĜĜĜĜĜĜĜĜĜĜĜĜĜĜĜĜĜĜĜĜĜĜĜĜĜĜĜĜĜĜĜĜĜĜĜĜĜĜĜĜĜĜĜĜĜĜĜ"
      ],
      [
        "ĜĜ",
        "Ě"
      ],
      [
        "ĜĜĜĜĜĜĜĜĜĜĜĜĜĜĜĜĜĜĜĜĜĜĜĜĜĜĜĜĜĜĜĜ",
        "ĜĜ"
      ],
      [
        "ĜĜĜĜĜĜĜĜ",
        "ĜĜĜĜĜ"
      ],
      [
        "Ĝ",
        "ė"
      ],
      [
        "ĜĜĜ",
        "ĝ"
      ],
      [
        "ĜĜĜ",
        "ě"
      ],
      [
        "ĜĜĜĜĜĜĜĜĜĜĜĜĜĜĜĜĜĜĜĜĜĜĜĜĜĜĜĜĜĜĜĜĜĜĜĜĜĜĜĜ",
        "ĜĜĜĜ"
      ],
      [
        "Ĝĝ",
        "Ĝ"
      ],
      [
        "ĜĜĜĜĜĜě",
        "ĜĜĜĜĜĜĜĜĜĜĜĜĜĜĜĜĜĜĜĜĜĜĜĜĜĜĜĜĜĜĜĜĜĜĜĜĜĜĜ"
      ],
      [
        "ĜĜĜĜĜĜ",
        "Ě"
      ],
      [
        "ĜĜĜĜĜĜ",
        "Ğ"
      ],
      [
        "Ĝ",
        "Ė"
      ],
      [
        "ĜĜě",
        "ĜĜĜĜĜĜĜĜĜĜĜĜĜĜĜĜĜĜĜĜĜĜĜĜĜĜĜĜĜĜĜĜĜĜĜĜĜĜĜĜĜĜĜĜĜĜ"
      ],
      [
        "ĜĜĝ",
        "Ā"
      ],
      [
        "Ĝ",
        "ĕ"
      ],
      [
        "ĜĜě",
        "Ā"
      ],
      [
        "ĜĜĜĜĜĜ",
        "Ę"
      ],
      [
        "ĜĜĜĜĜĜĝ",
        "ĜĜĜĜĜĜĜĜĜĜĜĜĜĜĜĜĜĜĜĜĜĜĜĜĜĜĜĜĜĜĜĜĜĜĜĜĜĜĜ"
      ],
      [
        "ě",
        "Ĝě"
      ],
      [
        "Ĝě",
        "ĜĜĜĜĜĜĜĜĜĜĜĜĜĜĜĜĜĜĜĜĜĜĜĜĜĜĜĜĜĜĜĜĜĜĜĜĜĜĜĜĜĜĜĜĜĜĜ"
      ],
      [
        "ĝ",
        "Ĝě"
      ],
      [
        "Ĝĝ",
        "ĜĜĜĜĜĜĜĜĜĜĜĜĜĜĜĜĜĜĜĜĜĜĜĜĜĜĜĜĜĜĜĜĜĜĜĜĜĜĜĜĜĜĜĜĜĜĜ"
      ],
      [
        "ĝ",
        "Ĝĝ"
      ],
      [
        "Ĝě",
        "Ĝ"
      ],
      [
        "ě",
        "Ě"
      ],
      [
        "ĝ",
        "ĜĜĜĜĜĜĜĜĜĜĜĜĜĜĜĜĜĜĜĜĜĜĜĜĜĜĜĜĜĜĜĜĜĜĜĜĜĜĜĜĜĜĜĜĜĜĜĜ"
      ],
      [
        "Ĝ",
        "Ĕ"
      ],
      [
        "Ğ",
        "ĝ"
      ],
      [
        "Ĝ",
        "ē"
      ],
      [
        "ĜĜĜĜĜĜĜĜĜĜĜĜĜĜĜĜĜĜĜĜĜĜĜĜ",
        "Ĝ"
      ],
      [
        "ĜĜĜĜ",
        "Ā"
      ],
      [
        "ě",
        "ĜĜĜĜĜĜĜĜĜĜĜĜĜĜĜĜĜĜĜĜĜĜĜĜĜĜĜĜĜĜĜĜĜĜĜĜĜĜĜĜĜĜĜĜĜĜ"
      ],
      [
        "Ġ",
        "ĜĜĜĜĜĜ"
      ],
      [
        "ě",
        "Ğ"
      ],
      [
        "Ġ",
        "Ĝ"
      ],
      [
        "Ĝĝ",
        "ĜĜĜĜĜĜĜĜĜĜĜĜĜĜĜĜĜĜĜĜĜĜĜĜĜĜĜĜĜĜĜĜĜĜĜĜĜĜĜ"
      ],
      [
        "Ĝĝ",
        "ĝ"
      ],
      [
        "ĜĜ",
        "ğ"
      ],
      [
        "ě",
        "Ĝ"
      ],
      [
        "ĜĜĜĜĝ",
        "ĜĜĜĜĜĜĜĜĜĜĜĜĜĜĜĜĜĜĜĜĜĜĜĜĜĜĜĜĜĜĜĜĜĜĜĜĜĜĜĜĜ"
      ],
      [
        "Ĝě",
        "ĜĜĜĜĜĜĜĜĜĜĜĜĜĜĜĜĜĜĜĜĜĜĜĜĜĜĜĜĜĜĜĜĜĜĜĜĜĜĜ"
      ],
      [
        "ĜĜě",
        "ĜĜĜ"
      ],
      [
        "ĕ",
        "ĜĜĜĀ"
      ],
      [
        "ĝ",
        "Ğ"
      ],
      [
        "Ğ",
        "ĜĜĜĜĜĜĜĜĜĜĜĜĜĜĜĜĜĜĜĜĜĜĜĜĜĜĜĜĜĜĜĜĜĜĜĜĜĜĜĜĜĜĜĜĜĜ"
      ],
      [
        "Ĝ",
        "!"
      ],
      [
        "ĝ",
        "Ě"
      ],
      [
        "Ĕ",
        "ĜĜĜĀ"
      ],
      [
        "ĜĜ",
        "ę"
      ],
      [
        "ĜĜĜĜě",
        "ĜĜĜĜĜĜĜĜĜĜĜĜĜĜĜĜĜĜĜĜĜĜĜĜĜĜĜĜĜĜĜĜĜĜĜĜĜĜĜĜĜ"
      ],
      [
        "ĜĞ",
        "ĜĀ"
      ],
      [
        "Ė",
        "ĜĜĜĀ"
      ],
      [
        "Ĝě",
        "ĝĜĜĜĜĜĜĜĜĜĜĜĜĜĜĜĜĜĜĜĜĜĜĜĜĜĜĜĜĜĜĜĜĜĜĜĜĜĜĜĜĜĜĜĜĜĜ"
      ],
      [
        "ĜĜĜĜĜĜ",
        "Ė"
      ],
      [
        "ĜĜĜĜĜĜě",
        "ĜĜĜĜĜĜĜĜĜĜĜĜĜĜĜĜĜĜĜĜĜĜĜĜĜĜĜĜĜĜĜĜ"
      ],
      [
        "ĜĜĝ",
        "ĜĜĜ"
      ],
      [
        "Ĝ",
        "Ē"
      ],
      [
        "ě",
        "ĜĜĀ"
      ],
      [
        "ĜĜĜĜĜĜĝ",
        "ĜĜĜĜĜĜĜĜĜĜĜĜĜĜĜĜĜĜĜĜĜĜĜĜĜĜĜĜĜĜĜĜ"
      ],
      [
        "ĜĜĜĜĜĜ",
        "ĕ"
      ],
      [
        "ĜĜĜĜĜĜ",
        "#"
      ],
      [
        "ĜĜĜĜĜĜĜĜ",
        "ĜĜĜĜĜě"
      ],
      [
        "ĜĞ",
        "Ĝ"
      ],
      [
        "ę",
        "Ĝ"
      ],
      [
        "ě",
        "ĜĜ"
      ],
      [
        "ĜĜĜĜĜĜĜĜ",
        "ĜĜĜĜĜĝ"
      ],
      [
        "ĜĜĜĜĜĜĜĜĜĜĜĜĜĜĜĜĜĜĜĜĜĜĜĜĜĜĜĜĜĜĜĜĜĜĜĜĜĜĜĜ",
        "ĜĜĜ"
      ],
      [
        "Ā",
        "ĜĜĜĜĜĜĜĜĜĜĜĜĜĜĜĜĜĜĜĜĜĜĜĜĜĜĜĜĜĜĜĜĜĜĜĜĜĜĜĜĜĜĜĜĜĜĜĜĜ"
      ],
      [
        "ē",
        "ĜĜĜĀ"
      ],
      [
        "ě",
        "ĜĞ"
      ],
      [
        "Ě",
        "Ĝĝ"
      ],
      [
        "ė",
        "ĜĜĜĀ"
      ],
      [
        "ĜĚ",
        "Ĝ"
      ],
      [
        "Ě",
        "ě"
      ],
      [
        "Ĝ",
        "\""
      ],
      [
        "ĝ",
        "ĜĜĜĜĜ"
      ],
      [
        "Ĝě",
        "ĝ"
      ],
      [
        "ĜĜĜĜĜĜĜĜĜĜĜĜĜĜĜĜĜĜĜĜĜĜĜĜĜĜĜĜĜĜĜĜĜĜĜĜĜĜĜĜ",
        "ĜĜĜĜĜ"
      ],
      [
        "Ĝ",
        "đ"
      ],
      [
        "ěĜĝ",
        "ĜĜĜĜĜĜĜĜĜĜĜĜĜĜĜĜĜĜĜĜĜĜĜĜĜĜĜĜĜĜĜĜĜĜĜĜĜĜĜĜĜĜĜĜĜĜ"
      ],
      [
        "ĜĜĜĜĜĜĜĜĜĜĜĜĜĜĜĜĜĜĜĜĜĜĜĜ",
        "ĜĜĜ"
      ],
      [
        "ğ",
        "ĝ"
      ],
      [
        "Ě",
        "Ĝ"
      ],
      [
        "ěĜě",
        "ĜĜĜĜĜĜĜĜĜĜĜĜĜĜĜĜĜĜĜĜĜĜĜĜĜĜĜĜĜĜĜĜĜĜĜĜĜĜĜĜĜĜĜĜĜĜ"
      ],
      [
        "ĜĜĜĜĜĜ",
        "\""
      ],
      [
        "Ĝĝ",
        "ě"
      ],
      [
        "Ĝĝ",
        "ĝĜĜĜĜĜĜĜĜĜĜĜĜĜĜĜĜĜĜĜĜĜĜĜĜĜĜĜĜĜĜĜĜĜĜĜĜĜĜĜĜĜĜĜĜĜĜ"
      ],
      [
        "ĜĜĜĜĝ",
        "Ĝě"
      ],
      [
        "Ě",
        "ĝ"
      ],
      [
        "Ğ",
        "Ĝě"
      ],
      [
        "ĜĜĜĜĜĜĜĜ",
        "ĜĜĜ"
      ],
      [
        "ĜĜĜĜĜĜĜĜĜĜĜĜĜĜĜĜ",
        "ĜĜ"
      ],
      [
        "Ġ",
        "ĝ"
      ],
      [
        "Ĝě",
        "ĜĀ"
      ],
      [
        "ĜĜĞ",
        "Ā"
      ],
      [
        "Ğ",
        "ě"
      ],
      [
        "Ĝ",
        "#"
      ],
      [
        "%",
        "ĜĜĜĜĜĜ"
      ],
      [
        "Ę",
        "ĜĜĜĀ"
      ],
      [
        "Ę",
        "Ĝ"
      ],
      [
        "Ĝę",
        "Ĝ"
      ],
      [
        "ĜĜĜĜĜĜĜĜĜĜĜĜĜĜĜĜĜĜĜĜĜĜĜĜĜĜĜĜĜĜĜĜ",
        "Ĝ"
      ],
      [
        "ĜĜĜĜĜĜ",
        "Ĝě"
      ],
      [
        "Ē",
        "ĜĜĜĀ"
      ],
      [
        "ē",
        "ĜĜĜĜĜĜ"
      ],
      [
        "ě",
        "ĜĜĜĜĜ"
      ],
      [
        "Ĝ",
        "Đ"
      ],
      [
        "Ĝě",
        "ĜĜĜĜĜĜĜĜĜĜĜĜĜĜĜĜĜĜĜĜĜĜĜĜĜĜĜĜĜĜĜĜĜĜĜĜĜĜĜĜĜĜĜĜ"
      ],
      [
        "ĝ",
        "ĜĜ"
      ],
      [
        "ĜĜĚ",
        "Ā"
      ],
      [
        "ĜĝĜĀ",
        "ĜĜĜĜĜĜĜĜĜĜĜĜĜĜĜĜĜĜĜĜĜĜĜĜĜĜĜĜĜĜĜĜĜĜĜĜĜĜĜĜĜĜĜĜĜĜĜĜĜ"
      ],
      [
        "ě",
        "ěĝ"
      ],
      [
        "Ĝğ",
        "Ĝ"
      ],
      [
        "Ĝě",
        "ě"
      ],
      [
        "ĜĜ",
        "Ę"
      ],
      [
        "ĜĜĞ",
        "ĜĜĜĜĜĜĜĜĜĜĜĜĜĜĜĜĜĜĜĜĜĜĜĜĜĜĜĜĜĜĜĜĜĜĜĜĜĜĜĜĜĜĜĜĜĜ"
      ],
      [
        "ĜĜĜĜĜĜě",
        "ĜĜĜĜĜĜě"
      ],
      [
        "ĝĜĝ",
        "ĜĜĜĜĜĜĜĜĜĜĜĜĜĜĜĜĜĜĜĜĜĜĜĜĜĜĜĜĜĜĜĜĜĜĜĜĜĜĜĜĜĜĜĜĜĜ"
      ],
      [
        "ĠĜĜĜĜĜĜ",
        "ė"
      ],
      [
        "ěĝ",
        "ĜĜĜĜĜĜĜĜĜĜĜĜĜĜĜĜĜĜĜĜĜĜĜĜĜĜĜĜĜĜĜĜĜĜĜĜĜĜĜĜĜĜĜĜĜĜĜ"
      ],
      [
        "Ĝĝ",
        "ĜĜĜĜ"
      ],
      [
        "ĜĞ",
        "ĝ"
      ],
      [
        "ĜĜĜĜĜĜ",
        "!"
      ],
      [
        "ĜĜĜĜĜĜ",
        "ė"
      ],
      [
        "Ĝ",
        "ď"
      ],
      [
        "Ĝ",
        "$"
      ],
      [
        "ĜĜĜĜĜĜ",
        "Ĝĝ"
      ],
      [
        "ĝ",
        "ĜĚ"
      ],
      [
        "ę",
        "ĜĜĜĀ"
      ],
      [
        "Ě",
        "Ĝě"
      ],
      [
        "#",
        "ĝ"
      ],
      [
        "Ě",
        "Ğ"
      ],
      [
        "ĠĜĜĜĜĜĜ",
        "!"
      ],
      [
        "Ĝ",
        "&"
      ],
      [
        "Ĝ",
        "*"
      ],
      [
        "\"",
        "ĝ"
      ],
      [
        "ě",
        "ę"
      ],
      [
        "Ĝ",
        "%"
      ],
      [
        "Ĝ",
        "("
      ],
      [
        "Ĝ",
        "'"
      ],
      [
        "ĜĜĜĜĜĜĜĜ",
        "ĜĜĜĜ"
      ],
      [
        "Ĝ",
        "."
      ],
      [
        "Ğ",
        "Ğ"
      ],
      [
        "!",
        "ĝ"
      ],
      [
        "Ĝ",
        "Ď"
      ],
      [
        "Ġ",
        "Ğ"
      ],
      [
        "Ĝě",
        "ĜĜĜĜě"
      ],
      [
        "đ",
        "ĜĜĜĀ"
      ],
      [
        "ĜĜĜĜĜĜĜĜ",
        "ĜĜĜĝ"
      ],
      [
        "Ĝĝ",
        "ĜĜĝ"
      ],
      [
        "ĜĜĜĜĜĜĜĜ",
        "ě"
      ],
      [
        "Ě",
        "Ě"
      ],
      [
        "ĜĜĜĜĜĜĜĜ",
        "ĝ"
      ],
      [
        "ę",
        "ě"
      ],
      [
        "ğ",
        "ě"
      ],
      [
        "Ĝĝ",
        "ĜĜĜĜĝ"
      ],
      [
        "Ĝ",
        ","
      ],
      [
        "ĜĜĜĜĜĜě",
        "ĜĜĜĜĜĜĜĜĜĜĜĜĜĜĜĜĜĜĜĜĜĜĜĜĜĜĜĜĜĜĜĜĜĜĜĜĜĜĜĜĜ"
      ],
      [
        "ěě",
        "ĜĜĜĜĜĜĜĜĜĜĜĜĜĜĜĜĜĜĜĜĜĜĜĜĜĜĜĜĜĜĜĜĜĜĜĜĜĜĜĜĜĜĜĜĜĜĜ"
      ],
      [
        "ĜĜĜĜĜě",
        "ě"
      ],
      [
        "ĝ",
        "ĜĜĀ"
      ],
      [
        "Ĝ",
        ")"
      ],
      [
        "Ĝě",
        "ĜĜĜĜĝ"
      ],
      [
        "ĜĘ",
        "Ĝ"
      ],
      [
        "ĜĜĜĜĜĜĜĜ",
        "ĜĜĜě"
      ],
      [
        "ğ",
        "Ğ"
      ],
      [
        "ĜĜĜĜĜě",
        "ĜĜĜĜĜĜĜĜĜĜĜĜĜĜĜĜĜĜĜĜĜĜĜĜĜĜĜĜĜĜĜĜĜĜĜĜĜĜĜĜ"
      ],
      [
        "Ĝ",
        "+"
      ],
      [
        "Ĝ",
        "-"
      ],
      [
        "Ĝĝ",
        "ĜĜĜĜě"
      ],
      [
        "ĜĜĜĜĜĜĜĜĜĜĜĜĜĜĜĜĜĜĜĜĜĜĜĜ",
        "ĜĜ"
      ],
      [
        "ĜĜĜĀ",
        "ěĜĜĜĜĜĜĜĜĜĜĜĜĜĜĜĜĜĜĜĜĜĜĜĜĜĜĜĜĜĜĜĜĜĜĜĜĜĜĜĜĜĜĜĜĜĜĜĜ"
      ],
      [
        "Ĝĝ",
        "Ğ"
      ],
      [
        "\"",
        "ĜĜĜĜĜĜĜĜĜĜĜĜĜ"
      ],
      [
        "Ġ",
        "ě"
      ],
      [
        "ĜĜĜĜĜĝ",
        "ĜĜĜĜĜĜĜĜĜĜĜĜĜĜĜĜĜĜĜĜĜĜĜĜĜĜĜĜĜĜĜĜĜĜĜĜĜĜĜĜ"
      ],
      [
        "Ĝě",
        "ĜĜĜĜ"
      ],
      [
        "ĝ",
        "ěĝ"
      ],
      [
        "ĜĜĜĜĜĜĝ",
        "ĜĜĜĜĜĜĝ"
      ],
      [
        "Ě",
        "ĜĜĜĀ"
      ],
      [
        "$",
        "Ğ"
      ],
      [
        "Ĝě",
        "ĜĜĝ"
      ],
      [
        "Ĝě",
        "ĜĜě"
      ],
      [
        "#",
        "Ğ"
      ],
      [
        "ĜĚ",
        "ĝ"
      ],
      [
        "Ĝĝ",
        "ěĜĜĜĜĜĜĜĜĜĜĜĜĜĜĜĜĜĜĜĜĜĜĜĜĜĜĜĜĜĜĜĜĜĜĜĜĜĜĜĜĜĜĜĜĜĜ"
      ],
      [
        "ĜĜĜĜĜĜĖ",
        "ĜĜĜĜĜĜĜĜĜĜĜĜĜ"
      ],
      [
        "Ė",
        "ĜĜĜĜĜĜĜĜĜĜĜĜĜ"
      ],
      [
        "ğ",
        "Ĝ"
      ],
      [
        "ĕ",
        "ĜĜĜĀĜĜĜĜĜĜĜĜĜĜĜĜĜĜĜĜĜĜĜĜĜĜĜĜĜĜĜĜĜĜĜĜĜĜĜĜĜĜĜĜĜĜĜĜĜĜĜĜĜ"
      ],
      [
        "ĜĜĜĜĜĝ",
        "ĝ"
      ],
      [
        "ě",
        "ĜĜĜĀ"
      ],
      [
        "ě",
        "ĜĚ"
      ],
      [
        "ğ",
        "ĜĜĜĜĜĜĜĜĜĜĜĜĜĜĜĜĜĜĜĜĜĜĜĜĜĜĜĜĜĜĜĜĜĜĜĜĜĜĜĜĜĜĜĜĜĜ"
      ],
      [
        "ĜĜĜĜĜĝ",
        "ĜĜĜĜĜĜĜĜĜĜĜĜĜĜĜĜĜĜĜĜĜĜĜĜĜĜĜĜĜĜĜĜĜĜĜĜĜĜĜĜĜ"
      ],
      [
        "ĜĜěĀ",
        "ĜĜĜĜĜĜĜĜĜĜĜĜĜĜĜĜĜĜĜĜĜĜĜĜĜĜĜĜĜĜĜĜĜĜĜĜĜĜĜĜĜĜĜĜĜĜĜĜĜ"
      ],
      [
        "ĜĜĜĜĜĜĝ",
        "ĜĜĜĜĜĜĜĜĜĜĜĜĜĜĜĜĜĜĜĜĜĜĜĜĜĜĜĜĜĜĜĜĜĜĜĜĜĜĜĜĜ"
      ],
      [
        "#",
        "ğ"
      ],
      [
        "ė",
        "Ĝ"
      ],
      [
        "ĜĜĜ",
        "ē"
      ],
      [
        "!",
        "Ğ"
      ],
      [
        "ĝ",
        "ĜĞ"
      ],
      [
        "\"",
        "Ğ"
      ],
      [
        "ĜĜĜĜĜĜě",
        "ĜĜĜĜĜĜĝ"
      ],
      [
        "ĜĜĜĜĜě",
        "ĜĜĜĜĜĜĜĜĜĜĜĜĜĜĜĜĜĜĜĜĜĜĜĜĜĜĜĜĜĜĜĜĜĜĜĜĜĜĜĜĜ"
      ],
      [
        "Ě",
        "ĜĞ"
      ],
      [
        "ĜĚ",
        "ĜĀ"
      ],
      [
        "ĝĜě",
        "ĜĜĜĜĜĜĜĜĜĜĜĜĜĜĜĜĜĜĜĜĜĜĜĜĜĜĜĜĜĜĜĜĜĜĜĜĜĜĜĜĜĜĜĜĜĜ"
      ],
      [
        "Ĝě",
        "Ğ"
      ],
      [
        "ĜĜĜ",
        "Ą"
      ],
      [
        "Ĝ",
        "/"
      ],
      [
        "ĝě",
        "ĜĜĜĜĜĜĜĜĜĜĜĜĜĜĜĜĜĜĜĜĜĜĜĜĜĜĜĜĜĜĜĜĜĜĜĜĜĜĜĜĜĜĜĜĜĜĜ"
      ],
      [
        "Ġ",
        "Ā"
      ],
      [
        "ĜĜĜĀ",
        "ĜĜěĜĜĜĜĜĜĜĜĜĜĜĜĜĜĜĜĜĜĜĜĜĜĜĜĜĜĜĜĜĜĜĜĜĜĜĜĜĜĜĜĜĜĜĜĜĜ"
      ],
      [
        "Ĝĝ",
        "ĜĜě"
      ],
      [
        "ę",
        "ĝ"
      ],
      [
        "Ğ",
        "Ě"
      ],
      [
        "ěĝ",
        "ĝĜĜĜĜĜĜĜĜĜĜĜĜĜĜĜĜĜĜĜĜĜĜĜĜĜĜĜĜĜĜĜĜĜĜĜĜĜĜĜĜĜĜĜĜĜĜ"
      ],
      [
        "ĜĜĜĜĜĜ",
        "%ĜĜĜĜĜĜ"
      ],
      [
        "ğ",
        "Ě"
      ],
      [
        "Ġ",
        "ĜĜĜĜĜĜĚ"
      ],
      [
        "ě",
        "ĜĜĜ"
      ],
      [
        "Ĕ",
        "ĜĜĜĀĜĜĜĜĜĜĜĜĜĜĜĜĜĜĜĜĜĜĜĜĜĜĜĜĜĜĜĜĜĜĜĜĜĜĜĜĜĜĜĜĜĜĜĜĜĜĜĜĜ"
      ],
      [
        "Ĝĝ",
        "Ě"
      ],
      [
        "Ġ",
        "ğ"
      ],
      [
        "Ğ",
        "ĜĜ"
      ],
      [
        "Ĝė",
        "Ĝ"
      ],
      [
        "ĜĜĜĜĜĜĜĜĜĜĜĜĜĜĜĜ",
        "ĜĜĜĜ"
      ],
      [
        "ěĝ",
        "ĝ"
      ],
      [
        "ĝĜě",
        "ĜĜĜ"
      ],
      [
        "ĜĜĜĜ",
        "Ğ"
      ],
      [
        "$",
        "ğ"
      ],
      [
        "$",
        "ĝ"
      ],
      [
        "ĜĜğ",
        "Ā"
      ],
      [
        "ĝĝ",
        "ĜĜĜĜĜĜĜĜĜĜĜĜĜĜĜĜĜĜĜĜĜĜĜĜĜĜĜĜĜĜĜĜĜĜĜĜĜĜĜĜĜĜĜĜĜĜĜ"
      ],
      [
        "ĜĜĜĜĜĜĞ",
        "ĜĜĜĜĜĜ"
      ],
      [
        "Ė",
        "ĜĜĜĀĜĜĜĜĜĜĜĜĜĜĜĜĜĜĜĜĜĜĜĜĜĜĜĜĜĜĜĜĜĜĜĜĜĜĜĜĜĜĜĜĜĜĜĜĜĜĜĜĜ"
      ],
      [
        "Ĝĝĝ",
        "Ā"
      ],
      [
        "Đ",
        "ĜĜĜĀ"
      ],
      [
        "\"",
        "ğ"
      ],
      [
        "Ġ",
        "ĜĜĜĜĜĜĞ"
      ],
      [
        "ĜĜ",
        "ė"
      ],
      [
        "ĜĜĜĜĜĜě",
        "ĜĜĜĜĜĜĜĜĜĜĜĜĜĜĜĜĜĜĜĜĜĜĜĜĜĜĜĜĜĜĜĜĜĜ"
      ],
      [
        "ĜĜĜĜĜĜĖ",
        "ĜĜĜĜĜĜ"
      ],
      [
        "ĜĜĜĜě",
        "Ĝĝ"
      ],
      [
        "ĠĜĜĜĜĜĜė",
        "ĜĜĜĜĜĜ"
      ],
      [
        "Ě",
        "ĜĜĜĜĜĜĜĜĜĜĜĜĜĜĜĜĜĜĜĜĜĜĜĜĜĜĜĜĜĜĜĜĜĜĜĜĜĜĜĜĜĜĜĜĜĜĜĜ"
      ],
      [
        "Ĝě",
        "ěĜĜĜĜĜĜĜĜĜĜĜĜĜĜĜĜĜĜĜĜĜĜĜĜĜĜĜĜĜĜĜĜĜĜĜĜĜĜĜĜĜĜĜĜĜĜ"
      ],
      [
        "ĜĜĜĜĜĜĘ",
        "ĜĜĜĜĜĜĞ"
      ],
      [
        "ĜĜĜĜĝ",
        "ĜĜĜĜĜĜĜĜĜĜĜĜĜĜĜĜĜĜĜĜĜĜĜĜĜĜĜĜĜĜĜĜĜĜ"
      ],
      [
        "ěĜĝ",
        "ĜĜĜ"
      ],
      [
        "%",
        "Ğ"
      ],
      [
        "ě",
        "Ĝğ"
      ],
      [
        "ĝ",
        "ğ"
      ],
      [
        "Ĝě",
        "ĞĜĜĜĜĜĜĜĜĜĜĜĜĜĜĜĜĜĜĜĜĜĜĜĜĜĜĜĜĜĜĜĜĜĜĜĜĜĜĜĜĜĜĜĜĜĜ"
      ],
      [
        "ĝ",
        "ę"
      ],
      [
        "Ġ",
        "8"
      ],
      [
        "ĜĜĜĜĜĝ",
        "ě"
      ],
      [
        "Ġ",
        "Ě"
      ],
      [
        "Ė",
        "ĜĜĜ"
      ],
      [
        "!",
        "ě"
      ],
      [
        "Ĕ",
        "ĜĜĜĜĜĜ#"
      ],
      [
        "ĔĜĜĜĜĜĜ#",
        "ĜĜĜĜĜĜĖĜĜĜĜĜĜ"
      ],
      [
        "ĜĜĜĜĜĜĜĜ",
        "ĜĜĜĜě"
      ],
      [
        "ğ",
        "ğ"
      ],
      [
        "ĖĜĜĜĜĜĜĜĜĜĜĜĜĜ",
        "!"
      ],
      [
        "Ğ",
        "Ĝĝ"
      ],
      [
        "Ġ",
        "ę"
      ],
      [
        "ĝ",
        "Ĝę"
      ],
      [
        "ĝ",
        "ĜĜĜ"
      ],
      [
        "ĜĜĜĜĜĜĜĜĜĜĜĜĜĝ",
        "ĜĜĜĜĜĜĜĜĜĜĜĜĜĜĜĜĜĜĜĜĜĜĜĜĜĜĜĜĜĜĜĜ"
      ],
      [
        "ĜĜĜĜĜĜĘ",
        "ĜĜĜĜĜĜĚ"
      ],
      [
        "Ĝě",
        "Ě"
      ],
      [
        "ĜĜĜĜĜĜĘ",
        "ĜĜĜĜĜĜė"
      ],
      [
        "ĝ",
        "ěě"
      ],
      [
        "ĜĜĜĜĝ",
        "ĜěĜĜĜĜĜĜĜĜĜĜĜĜĜĜĜĜĜĜĜĜĜĜĜĜĜĜĜĜĜĜĜĜĜĜĜĜĜĜĜ"
      ],
      [
        "ę",
        "ĜĜĜ"
      ],
      [
        "ĜĜĜĜĜĜě",
        "ĜĜĜĜĜĜĜĜĜĜĜĜĜĜĜĜĜĜĜĜĜĜĜĜĜ"
      ],
      [
        "ĜĜĜĜĜĜĝ",
        "ĜĜĜĜĜĜĜĜĜĜĜĜĜĜĜĜĜĜĜĜĜĜĜĜĜĜĜĜĜĜĜĜĜĜ"
      ],
      [
        "ĜĜĜĀ",
        "ĜĜĝĜĜĜĜĜĜĜĜĜĜĜĜĜĜĜĜĜĜĜĜĜĜĜĜĜĜĜĜĜĜĜĜĜĜĜĜĜĜĜĜĜĜĜĜĜĜ"
      ],
      [
        "ĜĜĜĜĜĜĝ",
        "ĜĜĜĜĜĜĜĜĜĜĜĜĜĜĜĜĜĜĜĜĜĜĜĜĜĜĜĜĜĜĜĜĜĜĜĜĜĜĜĜ"
      ],
      [
        "ĜĜĜĜĜĜ\"",
        "ĜĜĜĜĜĜĘĜĜĜĜĜĜĞ"
      ],
      [
        "ĠĜĜĜĜĜĜ!",
        "ĜĜĜĜĜĜ"
      ],
      [
        "ĜĚ",
        "ě"
      ],
      [
        "ĜĜĜĜĜĜĚ",
        "ĜĜĜĜĜĜ"
      ],
      [
        "ĜĜĜĜĜĜ!",
        "ĜĜĜĜĜĜĘ"
      ],
      [
        "Ğ",
        "Ā"
      ],
      [
        "!",
        "ğ"
      ],
      [
        "Ė",
        "Ĝ"
      ],
      [
        "Ğ",
        "Ĝ"
      ],
      [
        "ğ",
        "ĜĜĜĜĜĜĕ"
      ],
      [
        "ĜĜĜĜĜĜĞ",
        "ĜĜĜĜĜĜĘĜĜĜĜĜĜė"
      ],
      [
        "ĜĜĜĜĜĜě",
        "ĜĜĜĜĜĜĜĜĜĜĜĜĜĜĜĜĜĜĜĜĜĜĜĜĜĜĜĜĜĜĜĜĜĜĜĜĜĜĜĜ"
      ],
      [
        "ē",
        "ĜĜĜĀĜĜĜĜĜĜĜĜĜĜĜĜĜĜĜĜĜĜĜĜĜĜĜĜĜĜĜĜĜĜĜĜĜĜĜĜĜĜĜĜĜĜĜĜĜĜĜĜĜ"
      ],
      [
        "ě",
        "Ę"
      ],
      [
        "ĜĜĜĜĜĜĘ",
        "ĜĜĜĜĜĜ!"
      ],
      [
        "ğĜĜĜĜĜĜĕ",
        "ĜĜĜĜĜĜĞĜĜĜĜĜĜ"
      ],
      [
        "Ě",
        "ěĝ"
      ],
      [
        "ě",
        "ğ"
      ],
      [
        "Ĝğ",
        "ĜĀ"
      ],
      [
        "ĜĜĝĀ",
        "ĜĜĜĜĜĜĜĜĜĜĜĜĜĜĜĜĜĜĜĜĜĜĜĜĜĜĜĜĜĜĜĜĜĜĜĜĜĜĜĜĜĜĜĜĜĜĜĜĜ"
      ],
      [
        "ĜĞ",
        "ě"
      ],
      [
        "Ĝĝě",
        "Ā"
      ],
      [
        "!",
        "Ě"
      ],
      [
        "ěěĝ",
        "ĜĜĜĜĜĜĜĜĜĜĜĜĜĜĜĜĜĜĜĜĜĜĜĜĜĜĜĜĜĜĜĜĜĜĜĜĜĜĜĜĜĜĜĜĜĜ"
      ],
      [
        "ĜĜĜĜĜĜĖ",
        "ĜĜĜĜĜĜĘĜĜĜĜĜĜĚ"
      ],
      [
        "ė",
        "ĜĜĜ"
      ],
      [
        "ĜĜĜĜĜě",
        "ĝ"
      ],
      [
        "ę",
        "Ĝĝ"
      ],
      [
        "Ę",
        "ĜĜĜ"
      ],
      [
        "ĜĜĜĜě",
        "ĜĝĜĜĜĜĜĜĜĜĜĜĜĜĜĜĜĜĜĜĜĜĜĜĜĜĜĜĜĜĜĜĜĜĜĜĜĜĜĜĜ"
      ],
      [
        "Ğ",
        "ĜĚ"
      ],
      [
        "%",
        "ĜĜĜĜĜĜĜĜĜĜĜĜĜ"
      ],
      [
        "ę",
        "Ě"
      ],
      [
        "ĜĜĚ",
        "ĜĜĜĜĜĜĜĜĜĜĜĜĜĜĜĜĜĜĜĜĜĜĜĜĜĜĜĜĜĜĜĜĜĜĜĜĜĜĜĜĜĜĜĜĜĜ"
      ],
      [
        "\"ĜĜĜĜĜĜĜĜĜĜĜĜĜ",
        "ė"
      ],
      [
        "%ĜĜĜĜĜĜĜĜĜĜĜĜĜ",
        "ĖĜĜĜĜĜĜĜĜĜĜĜĜĜ!"
      ],
      [
        "Ę",
        "ĜĜĜĜĜĜ!ĜĜĜĜĜĜĘ"
      ],
      [
        "Ĝĝ",
        "ĜĜĜĜĜĜĜĜĜĜĜĜĜĜĜĜĜĜĜĜĜĜĜĜĜĜĜĜĜĜĜĜĜĜĜĜĜĜĜĜĜĜĜĜ"
      ],
      [
        "%",
        "ĝ"
      ],
      [
        "$",
        "ĜĜĜĜĜĜĕ"
      ],
      [
        "Ę",
        "ĜĜĜĜĜĜė"
      ],
      [
        "ĜĜ",
        "!"
      ],
      [
        "ğ",
        "ĜĜĜĜĜĜ#"
      ],
      [
        "ĜĜĜĜĜĜĜĜ",
        "ĜĜ"
      ],
      [
        "ĜĜę",
        "Ā"
      ],
      [
        "ĜĜĜĜĜĜĜĜĜĜĜĜĜĜĜĜ",
        "ĜĜĜ"
      ],
      [
        "ĜĜĜĜĜĜĚ",
        "ĜĜĜĜĜĜĘĜĜĜĜĜĜ!"
      ],
      [
        ")",
        "ĜĜĜĜĜĜĖĜĜĜĜĜĜĜĜĜĜĜĜĜ"
      ],
      [
        "ĜĜĜ",
        "Ē"
      ],
      [
        "ĜĚ",
        "ĝĜĜĜĜĜĜĜĜĜĜĜĜĜĜĜĜĜĜĜĜĜĜĜĜĜĜĜĜĜĜĜĜĜĜĜĜĜĜĜĜĜĜĜĜĜĜ"
      ],
      [
        "ĝ",
        "Ā"
      ],
      [
        "$ĜĜĜĜĜĜĕ",
        "ĜĜĜĜĜĜ\"ĜĜĜĜĜĜĘĜĜĜĜĜĜĞ"
      ],
      [
        "ğĜĜĜĜĜĜ#",
        "ĜĜĜĜĜĜĞĜĜĜĜĜĜĘĜĜĜĜĜĜė"
      ],
      [
        "Ĕ",
        "ĜĜĜĜĜĜĕ"
      ],
      [
        "ĜĜĝ",
        "ĜĜĜĜĜĜěĜĜĜĜĜĜĜĜĜĜĜĜĜĜĜĜĜĜĜĜĜĜĜĜĜĜĜĜĜĜĜĜĜĜĜĜĜĜĜ"
      ],
      [
        "ĕ",
        "ĜĜĜ"
      ],
      [
        "Ě",
        "ĝĝ"
      ],
      [
        "ĜĜĜĜě",
        "ĜĜĜĜĜĜĜĜĜĜĜĜĜĜĜĜĜĜĜĜĜĜĜĜĜĜĜĜĜĜĜĜĜĜ"
      ],
      [
        "ěĜĞ",
        "ĜĜĜĜĜĜĜĜĜĜĜĜĜĜĜĜĜĜĜĜĜĜĜĜĜĜĜĜĜĜĜĜĜĜĜĜĜĜĜĜĜĜĜĜĜĜ"
      ],
      [
        "Ě",
        "ĜĚ"
      ],
      [
        "ěĜĝ",
        "Ā"
      ],
      [
        "-",
        "ĜĜĜ"
      ],
      [
        "ĜĜĜĜĜĜ",
        "ēĜĜĜĜĜĜ"
      ],
      [
        "ĝ",
        "ĜĘ"
      ],
      [
        "ĜĜĜĜĜĜĜě",
        "ĜĜĜĜĜĜĜĜĜĜĜĜĜĜĜĜĜĜĜĜĜĜĜĜĜĜĜĜĜĜĜĜĜĜĜĜĜĜĜĜĜ"
      ],
      [
        "\"",
        "ě"
      ],
      [
        "+",
        "ĜĜĜ"
      ],
      [
        "Ĝę",
        "ĜĀ"
      ],
      [
        "Ğ",
        "ğ"
      ],
      [
        "ĜĜĜĜĜĜĜĜĜĜĜĜĜĜĜĜ",
        "ĜĜĜĜě"
      ],
      [
        ",",
        "ĜĜĜ"
      ],
      [
        "ĝ",
        "Ę"
      ],
      [
        "ğ",
        "Ā"
      ],
      [
        "\"",
        "Ě"
      ],
      [
        "ĔĜĜĜĜĜĜĕ",
        "ĜĜĜĜĜĜĖĜĜĜĜĜĜĘĜĜĜĜĜĜĚ"
      ],
      [
        "Ē",
        "ĜĝĜĀ"
      ],
      [
        "ę",
        "ĜĞ"
      ],
      [
        "ę",
        "ĜĜĜĜĜĜ#"
      ],
      [
        "Ĝĕ",
        "ĜĜĜĀ"
      ],
      [
        "ĜĜě",
        "ĜĜĜĜĜĜĜĜĜĜĜĜĜĜĜĜĜĜĜĜĜĜĜĜĜĜĜĜĜĜĜĜĜĜĜĜĜĜĜĜĜĜĜ"
      ],
      [
        "Ĕ",
        "ĜĜĜ"
      ],
      [
        "ĘĜĜĜĜĜĜė",
        "ĜĜĜĜĜĜĘ"
      ],
      [
        "ĜĜĜĜĜĜ\"",
        "ĜĜĜĜĜĜĜĜĜĜĜĜĜ"
      ],
      [
        "ĜĜĜĜĜĜ\"",
        "ĜĜĜĜĜĜ"
      ],
      [
        "Ġ",
        "ĜĜĜ"
      ],
      [
        "ĕ",
        "ĜĝĜĀ"
      ],
      [
        "ē",
        "ĜĝĜĀ"
      ],
      [
        "ĜĜĜĜĜĜĜĜ",
        "ĜĜĜĜĝ"
      ],
      [
        "ĜĚ",
        "ĜĜĜĜĜĜĜĜĜĜĜĜĜĜĜĜĜĜĜĜĜĜĜĜĜĜĜĜĜĜĜĜĜĜĜĜĜĜĜĜĜĜĜĜĜĜĜ"
      ],
      [
        "*",
        "ĜĜĜ"
      ],
      [
        "ĕ",
        "Ĝ"
      ],
      [
        "ě",
        "ĜĜĜě"
      ],
      [
        "Ğ",
        "ę"
      ],
      [
        "ĜĜĝ",
        "ĜĜĜĜĜĜĜĜĜĜĜĜĜĜĜĜĜĜĜĜĜĜĜĜĜĜĜĜĜĜĜĜĜĜĜĜĜĜĜĜĜĜĜ"
      ],
      [
        "ĜĀ",
        "ĜĜĜĜĜĜĜĜĜĜĜĜĜĜĜĜĜĜĜĜĜĜĜĜĜĜĜĜĜĜĜĜĜĜĜĜĜĜĜĜĜĜĜĜĜĜĜĜĜ"
      ],
      [
        "!",
        "Ĝ"
      ],
      [
        "Ě",
        "ĜĜĀ"
      ],
      [
        "ė",
        "ĜĜĜĀĜĜĜĜĜĜĜĜĜĜĜĜĜĜĜĜĜĜĜĜĜĜĜĜĜĜĜĜĜĜĜĜĜĜĜĜĜĜĜĜĜĜĜĜĜĜĜĜĜ"
      ],
      [
        "Ě",
        "Ĝğ"
      ],
      [
        "Ĝĝ",
        "ĞĜĜĜĜĜĜĜĜĜĜĜĜĜĜĜĜĜĜĜĜĜĜĜĜĜĜĜĜĜĜĜĜĜĜĜĜĜĜĜĜĜĜĜĜĜĜ"
      ],
      [
        "ĜĞ",
        "Ğ"
      ],
      [
        "#",
        "ě"
      ],
      [
        "ĜĜĜĜĜĜ",
        "ĜĝĜĜĜĜĜĜĜĜĜĜĜĜĜĜĜĜĜĜĜĜĜĜĜĜĜĜĜĜĜĜĜĜĜĜĜĜĜĜĜ"
      ],
      [
        "ě",
        "ĜĜĜĜĜĜěĜĜĜĜĜĜĜĜĜĜĜĜĜĜĜĜĜĜĜĜĜĜĜĜĜĜĜĜĜĜĜĜĜĜĜĜĜĜĜĜĜ"
      ],
      [
        "ĝěĝ",
        "ĜĜĜĜĜĜĜĜĜĜĜĜĜĜĜĜĜĜĜĜĜĜĜĜĜĜĜĜĜĜĜĜĜĜĜĜĜĜĜĜĜĜĜĜĜĜ"
      ],
      [
        "Ĕ",
        "ĜĝĜĀ"
      ],
      [
        ".",
        "ĜĜĜ"
      ],
      [
        "Ĝě",
        "ĜĜĜ"
      ],
      [
        "ĜĜĜĜĜĜě",
        "ĜĜĜĜĜĜĜĜĜĜĜĜĜĜĜĜĜĜ"
      ],
      [
        "ěĝ",
        "ěĜĜĜĜĜĜĜĜĜĜĜĜĜĜĜĜĜĜĜĜĜĜĜĜĜĜĜĜĜĜĜĜĜĜĜĜĜĜĜĜĜĜĜĜĜĜ"
      ],
      [
        "Ě",
        "ĜĜ"
      ],
      [
        "ĝ",
        "Ĝ"
      ],
      [
        "ęĜĜĜĜĜĜ#",
        "ĜĜĜĜĜĜĚĜĜĜĜĜĜĘĜĜĜĜĜĜ!"
      ],
      [
        "ĜĜĜĜĜĜĜĝ",
        "ĜĜĜĜĜĜĜĜĜĜĜĜĜĜĜĜĜĜĜĜĜĜĜĜĜĜĜĜĜĜĜĜĜĜĜĜĜĜĜĜĜ"
      ],
      [
        ")",
        "ĜĜĜ"
      ],
      [
        "Ē",
        "ĜĜĜĀĜĜĜĜĜĜĜĜĜĜĜĜĜĜĜĜĜĜĜĜĜĜĜĜĜĜĜĜĜĜĜĜĜĜĜĜĜĜĜĜĜĜĜĜĜĜĜĜĜ"
      ],
      [
        "ę",
        "Ğ"
      ],
      [
        "ĜĞ",
        "ĜĜĜĜĜĜĜĜĜĜĜĜĜĜĜĜĜĜĜĜĜĜĜĜĜĜĜĜĜĜĜĜĜĜĜĜĜĜĜĜĜĜĜĜĜĜĜ"
      ],
      [
        "ē",
        "ĜĜĜ"
      ],
      [
        "!",
        "ę"
      ],
      [
        "%",
        "ğ"
      ],
      [
        "Ĝĕ",
        "ĜĜĜĀĜĜĜĜĜĜĜĜĜĜĜĜĜĜĜĜĜĜĜĜĜĜĜĜĜĜĜĜĜĜĜĜĜĜĜĜĜĜĜĜĜĜĜĜĜĜĜĜĜ"
      ],
      [
        "ĜĖ",
        "ĜĜĜĀ"
      ],
      [
        "Ğ",
        "Ĝę"
      ],
      [
        "ĜĜĜĜĝ",
        "ĜĝĜĜĜĜĜĜĜĜĜĜĜĜĜĜĜĜĜĜĜĜĜĜĜĜĜĜĜĜĜĜĜĜĜĜĜĜĜĜĜ"
      ],
      [
        "ę",
        "ĜĜĜĜĜĜĕ"
      ],
      [
        "(",
        "ĜĜĜ"
      ],
      [
        "ĝě",
        "Ĝ"
      ],
      [
        "ĜĜĜĜĜĜ",
        "ğ"
      ],
      [
        "ĜĜě",
        "ě"
      ],
      [
        "$",
        "ĜĜĜĜĜĜ#"
      ],
      [
        "ĜĜĜĜĜĜ",
        "ę"
      ],
      [
        "ĜĜĜĜĝ",
        "ĜĚ"
      ],
      [
        "Ě",
        "ĜĜĜ"
      ],
      [
        "\"",
        "ę"
      ],
      [
        "ĜĜĜĜĀ",
        "ĜĜĜĜĜĜĜĜĜĜĜĜĜĜĜĜĜĜĜĜĜĜĜĜĜĜĜĜĜĜĜĜĜĜĜĜĜĜĜĜĜĜĜĜĜĜĜĜĜ"
      ],
      [
        "&",
        "Ğ"
      ],
      [
        "ĜĜĜĜĝ",
        "ĝ"
      ],
      [
        "ĜĜĜĜĜĜĜĜĜĜĜě",
        "ĜĜĜĜĜĜĜĜĜĜĜĜĜĜĜĜĜĜĜĜĜĜĜĜĜĜĜĜĜĜĜĜĜĜ"
      ],
      [
        "ĜĜĜĜě",
        "ĜĞ"
      ],
      [
        "ĜěĜĜĜĜě",
        "ĜĜĜĜĜĜĜĜĜĜĜĜĜĜĜĜĜĜĜĜĜĜĜĜĜĜĜĜĜĜĜĜĜĜĜĜĜĜĜ"
      ],
      [
        "Ĝĝ",
        "ĜĜĜĜĜĜĜĜĜĜĜĜĜĜĜĜĜĜĜĜĜĜĜĜĜĜĜĜĜĜĜĜ"
      ],
      [
        "Ġ",
        "!"
      ],
      [
        "ĜĜĜĜ",
        "Ě"
      ],
      [
        "ĜĜĜĜĜĜĜĜĜĜĜĜĜĜĜĜ",
        "ĜĜĜĜĝ"
      ],
      [
        "ĜĜĜĜĜĜĜĜ",
        "ĜěĜĜĜĜĜĜĜĜĜĜĜĜĜĜĜĜĜĜĜĜĜĜĜĜĜĜĜĜĜĜĜĜĜĜĜĜĜĜĜ"
      ],
      [
        "ĜĜĜĜě",
        "ě"
      ],
      [
        "ĜĜĜĜĜĜě",
        "ĜĜĜĜĜĜĝĜĜĜĜĜĜĜĜĜĜĜĜĜĜĜĜĜĜĜĜĜĜĜĜĜĜĜĜĜĜĜĜ"
      ],
      [
        "ĜěĜĜĜĜĝ",
        "ĜĜĜĜĜĜĜĜĜĜĜĜĜĜĜĜĜĜĜĜĜĜĜĜĜĜĜĜĜĜĜĜĜĜĜĜĜĜĜ"
      ],
      [
        "ğ",
        "ę"
      ],
      [
        "ĜĜĜĜĜĜĜĜĜĜĜĜĜ",
        "\"ĜĜĜĜĜĜĜĜĜĜĜĜĜė"
      ],
      [
        "ĜĜĝ",
        "ĝ"
      ],
      [
        "&",
        "ĝ"
      ],
      [
        "ĜĜĜĜĜĜĝ",
        "ĜĜĜĜĜĜĜĜĜĜĜĜĜĜĜĜĜĜĜĜĜĜĜĜĜ"
      ],
      [
        "ĜĜĜĜĜĜě",
        "ĜĜĜĜĜĜěĜĜĜĜĜĜĜĜĜĜĜĜĜĜĜĜĜĜĜĜĜĜĜĜĜĜĜĜĜĜĜĜ"
      ],
      [
        "Ġ",
        "ĜĜĜĜĜĜĜĜĜĜĜĜĜĜĜĜĜĜĜĜĜĜĜĜĜĜĜĜĜĜĜĜĜĜĜĜĜĜĜĜĜĜĜĜĜĜ"
      ],
      [
        "ĜĔ",
        "ĜĜĜĀ"
      ],
      [
        "ĜĜĜĜĀ",
        "ĜĝĜĜĜĜĜĜĜĜĜĜĜĜĜĜĜĜĜĜĜĜĜĜĜĜĜĜĜĜĜĜĜĜĜĜĜĜĜĜĜĜĜĜĜĜĜĜĜ"
      ],
      [
        "'",
        "ĜĜĜ"
      ],
      [
        "đ",
        "ĜĝĜĀ"
      ],
      [
        "ĜĜĜ",
        "%"
      ],
      [
        "ĜĜĜĜĜĜě",
        "ĜĜĜĜ"
      ],
      [
        "Ĕ",
        "Ĝ"
      ],
      [
        "ĚĜĝ",
        "ĜĜĜĜĜĜĜĜĜĜĜĜĜĜĜĜĜĜĜĜĜĜĜĜĜĜĜĜĜĜĜĜĜĜĜĜĜĜĜĜĜĜĜĜĜĜ"
      ],
      [
        "#",
        "Ě"
      ],
      [
        "Ğ",
        "ĜĜĜĜĜĜĜĜĜĜĜĜĜĜĜĜĜĜĜĜĜĜĜĜĜĜĜĜĜĜĜĜĜĜĜĜĜĜĜĜĜĜĜĜĜĜĜĜ"
      ],
      [
        "ğ",
        "ĜĜ"
      ],
      [
        "ĜĜě",
        "ĜĜĜĜĜĜĜĜĜĜĜĜĜĜĜĜĜĜĜĜĜĜĜĜĜĜĜĜĜĜĜĜĜĜĜĜĜĜĜĜĜ"
      ],
      [
        "ěě",
        "Ĝ"
      ],
      [
        "ĜĚ",
        "Ğ"
      ],
      [
        "Ĝğ",
        "ĝ"
      ],
      [
        "Ġ",
        "ė"
      ],
      [
        "ĜĜĜĜě",
        "ĜĜĜĜĜĜĜĜĜĜĜĜĜĜĜĜĜĜĜĜĜĜĜĜĜĜĜĜĜĜĜĜĜĜĜĜĜĜĜ"
      ],
      [
        "ĝĝ",
        "ĝ"
      ],
      [
        "Ě",
        "Ā"
      ],
      [
        "ĜĜĜĜĜĜĜĜ",
        "ĜĝĜĜĜĜĜĜĜĜĜĜĜĜĜĜĜĜĜĜĜĜĜĜĜĜĜĜĜĜĜĜĜĜĜĜĜĜĜĜĜ"
      ],
      [
        "ĜĜĜ",
        "Ă"
      ],
      [
        "ĜĖ",
        "Ĝ"
      ],
      [
        "ĜĜĜĜĜĜ",
        "ĜěĜĜĜĜĜĜĜĜĜĜĜĜĜĜĜĜĜĜĜĜĜĜĜĜĜĜĜĜĜĜĜĜĜĜĜĜĜĜĜ"
      ],
      [
        "ęĜĜĜĜĜĜĕ",
        "ĜĜĜĜĜĜĚĜĜĜĜĜĜ"
      ],
      [
        "ĜĜĜĜĜĜ%ĜĜĜĜĜĜ",
        "ĔĜĜĜĜĜĜ#ĜĜĜĜĜĜĖĜĜĜĜĜĜ"
      ],
      [
        "\"",
        "Ĝė"
      ],
      [
        "Ğ",
        "ĜĜĀ"
      ],
      [
        "Ġ",
        "Ę"
      ],
      [
        "ĝĝ",
        "ĝĜĜĜĜĜĜĜĜĜĜĜĜĜĜĜĜĜĜĜĜĜĜĜĜĜĜĜĜĜĜĜĜĜĜĜĜĜĜĜĜĜĜĜĜĜĜ"
      ],
      [
        "ĚĜě",
        "ĜĜĜĜĜĜĜĜĜĜĜĜĜĜĜĜĜĜĜĜĜĜĜĜĜĜĜĜĜĜĜĜĜĜĜĜĜĜĜĜĜĜĜĜĜĜ"
      ],
      [
        "ĜĜĜĜĜĜĜĜĜĜĜĜĜě",
        "ĜĜĜĜĜĜĜĜĜĜĜĜĜĜĜĜĜĜĜĜĜĜĜĜĜĜĜĜĜĜĜĜ"
      ],
      [
        "Ĝě",
        "ğ"
      ],
      [
        "ĜĜĜĜ",
        "ĜĚ"
      ],
      [
        "ĜĜĜĜĜě",
        "ĜĜĜĜĜĜĜĜĜĜĜĜĜĜĜĜĜĜĜĜĜĜĜĜĜĜĜĜĜĜĜĜĜ"
      ],
      [
        "Ĝě",
        "ĜĜĜĜĜĜĜĜĜĜĜĜĜĜĜĜĜĜĜĜĜĜĜĜĜĜĜĜĜĜĜĜ"
      ],
      [
        "ĜĜĝ",
        "ĜĜĜĜĜĜĝĜĜĜĜĜĜĜĜĜĜĜĜĜĜĜĜĜĜĜĜĜĜĜĜĜĜĜĜĜĜĜĜĜĜĜĜĜĜĜ"
      ],
      [
        "Ě",
        "Ę"
      ],
      [
        "ĜĜĜĜ",
        "ĜĞ"
      ],
      [
        "Ğ",
        "ĜĜĜ"
      ],
      [
        "\"",
        "ĜĜĜ"
      ],
      [
        "&",
        "ĜĜĜ"
      ],
      [
        "ď",
        "ĜĜĜĜĜĜĖĜĜĜĜĜĜĜĜĜĜĜĜĜ"
      ],
      [
        "Ė",
        "ĜĝĜĀ"
      ],
      [
        "ĝ",
        "!"
      ],
      [
        "ĝĝ",
        "ě"
      ],
      [
        "&",
        "ğ"
      ],
      [
        "ě",
        "ė"
      ],
      [
        "Ě",
        "ę"
      ],
      [
        "ĝ",
        "ĜĜĜĝ"
      ],
      [
        "ěĜĜĀ",
        "ĜĜĜĜĜĜĜĜĜĜĜĜĜĜĜĜĜĜĜĜĜĜĜĜĜĜĜĜĜĜĜĜĜĜĜĜĜĜĜĜĜĜĜĜĜĜĜĜĜ"
      ],
      [
        "Ĝ!",
        "Ĝ"
      ],
      [
        "$ĜĜĜĜĜĜ#",
        "ĜĜĜĜĜĜ\"ĜĜĜĜĜĜ"
      ],
      [
        "%",
        "ĜĜĜ"
      ],
      [
        "ğ",
        "Ĝę"
      ],
      [
        "\"",
        "!"
      ],
      [
        "Ĝĝ",
        "ğ"
      ],
      [
        "Ĝĝ",
        "ĜĜĀ"
      ],
      [
        "Ğ",
        "Ę"
      ],
      [
        "ĜĜĜ",
        "ĕ"
      ],
      [
        "Ĕ",
        "ĜĜěĀ"
      ],
      [
        "Ġ",
        "ē"
      ],
      [
        "#",
        "!"
      ],
      [
        "Ě",
        "ğ"
      ],
      [
        "ě",
        "ĜĜĜĜĜĜĝĜĜĜĜĜĜĜĜĜĜĜĜĜĜĜĜĜĜĜĜĜĜĜĜĜĜĜĜĜĜĜĜĜĜĜĜĜĜĜĜĜ"
      ],
      [
        "ĜĜĜĜĝ",
        "ĜĜĜĜĜĜĜĜĜĜĜĜĜĜĜĜĜĜĜĜĜĜĜĜĜĜĜĜĜĜĜĜĜĜĜĜĜĜĜ"
      ],
      [
        "$",
        "!"
      ],
      [
        "ď",
        "ĜĜĜĀ"
      ],
      [
        "ĕ",
        "ĜĜěĀ"
      ],
      [
        "\"",
        "Ĝ"
      ],
      [
        "ĜĜĚ",
        "ĜĜĜ"
      ],
      [
        "$",
        "ĜĜĜ"
      ],
      [
        "ğ",
        "Ĝě"
      ],
      [
        "/",
        "ĜĜĜ"
      ],
      [
        "ĜĜĝ",
        "Ĝ"
      ],
      [
        "Ĝĝ",
        "ĜĜĜ"
      ],
      [
        "Ĝē",
        "ĜĜĜĀ"
      ],
      [
        "ĜĜĜĜĜĜĝ",
        "ĜĜĜĜĜĜĝĜĜĜĜĜĜĜĜĜĜĜĜĜĜĜĜĜĜĜĜĜĜĜĜĜĜĜĜĜĜĜĜ"
      ],
      [
        "ĜĜĜĜĜě",
        "ĜĜĜĜĜĜĜĜĜĜĜĜĜĜĜĜĜĜĜĜĜĜĜĜĜĜĜĜĜĜĜĜĜĜĜĜĜĜĜ"
      ],
      [
        "Ġ",
        "Ė"
      ],
      [
        "ĜĜĜĀ",
        "ĜĜ"
      ],
      [
        "ĜĜĜĜĝĜě",
        "ĜĜĜĜĜĜĜĜĜĜĜĜĜĜĜĜĜĜĜĜĜĜĜĜĜĜĜĜĜĜĜĜ"
      ],
      [
        "ĜĜĜĜĜĜĜĜ",
        "Ĝě"
      ],
      [
        "ěĚ",
        "Ĝ"
      ],
      [
        "Ğ",
        "ĜĘ"
      ],
      [
        "Ğ",
        "ĜĞ"
      ],
      [
        "ĜĝĜ",
        "."
      ],
      [
        "ĜĜě",
        "ĜĜĜĜĜĜěĜĜĜĜĜĜĜĜĜĜĜĜĜĜĜĜĜĜĜĜĜĜĜĜĜĜĜĜĜĜĜĜĜĜĜĜĜĜĜ"
      ],
      [
        "!",
        "!"
      ],
      [
        "ĝ",
        "Ĝė"
      ],
      [
        "ĜĜĜĜĜĜ",
        ")ĜĜĜĜĜĜĖĜĜĜĜĜĜĜĜĜĜĜĜĜ"
      ],
      [
        "ěĝ",
        "Ĝ"
      ],
      [
        "ĜĖ",
        "ĜĜĜĀĜĜĜĜĜĜĜĜĜĜĜĜĜĜĜĜĜĜĜĜĜĜĜĜĜĜĜĜĜĜĜĜĜĜĜĜĜĜĜĜĜĜĜĜĜĜĜĜĜ"
      ],
      [
        "ĜĜĜĜĜĜĜĜě",
        "ĜĜĜĜĜĜĜĜĜĜĜĜĜĜĜĜĜĜĜĜĜĜĜĜĜĜĜĜĜĜĜĜĜĜĜĜĜĜĜ"
      ],
      [
        "ĜĜĝ",
        "ĜĜĜĜĜĜĜĜĜĜĜĜĜĜĜĜĜĜĜĜĜĜĜĜĜĜĜĜĜĜĜĜĜĜĜĜĜĜĜĜĜ"
      ],
      [
        "Ġ",
        "\""
      ],
      [
        "Ĝę",
        "ĝ"
      ],
      [
        "ĜĞě",
        "Ā"
      ],
      [
        "ĝ",
        "ĜĜĜĜĜĜěĜĜĜĜĜĜĜĜĜĜĜĜĜĜĜĜĜĜĜĜĜĜĜĜĜĜĜĜĜĜĜĜĜĜĜĜĜĜĜĜĜ"
      ],
      [
        "ğ",
        "ĜĜĜ"
      ],
      [
        "ğ",
        "ĜĚ"
      ],
      [
        "Ę",
        "ě"
      ],
      [
        "ĝĚ",
        "Ĝ"
      ],
      [
        "Ē",
        "ĜĜĜ"
      ],
      [
        "ĜĜĜĜě",
        "ĜĜĜĜĜĜĜĜĜĜĜĜĜĜĜĜĜĜĜĜĜĜĜĜĜĜĜĜĜĜĜĜĜĜĜĜĜĜĜĜĜĜĜĜ"
      ],
      [
        "Ě",
        "ěĞ"
      ],
      [
        "ĜĜĝ",
        "Ĝĝ"
      ],
      [
        "ěě",
        "ě"
      ],
      [
        "ĜĜĜĜ",
        "ę"
      ],
      [
        "Đ",
        "ĜĝĜĀ"
      ],
      [
        "ĜĜĜĜĜĜĝ",
        "ĜĜĜĜ"
      ],
      [
        "ĜĜĜĜě",
        "ĜěĜĜĜĜĜĜĜĜĜĜĜĜĜĜĜĜĜĜĜĜĜĜĜĜĜĜĜĜĜĜĜĜĜĜĜĜĜĜĜ"
      ],
      [
        "Ġ",
        "Ĝě"
      ],
      [
        "ē",
        "ĜĜĜĜĜĜĜĜĜĜĜĜĜ\"ĜĜĜĜĜĜĜĜĜĜĜĜĜė"
      ],
      [
        "ěě",
        "Ğ"
      ],
      [
        "Ė",
        "ě"
      ],
      [
        "ĜĜĜĜĜĜĜĜĜĜĜĝ",
        "ĜĜĜĜĜĜĜĜĜĜĜĜĜĜĜĜĜĜĜĜĜĜĜĜĜĜĜĜĜĜĜĜĜĜ"
      ],
      [
        "$",
        "Ě"
      ],
      [
        "Ę",
        "Ě"
      ],
      [
        "ĜĜĜĜĜĜĜĜĜĜĜĜĜě",
        "ĜĜĜĜĜĜĜĜĜĜĜĜĜĜĜĜĜĜĜĜĜĜĜĜĜ"
      ],
      [
        "ĝ",
        "ė"
      ],
      [
        "ĜĞĝ",
        "Ā"
      ],
      [
        "ĜĜĜĜĝ",
        "ě"
      ],
      [
        "!",
        "Ĝė"
      ],
      [
        "!",
        "Ę"
      ],
      [
        "Ĝĝ",
        "ę"
      ],
      [
        "ĜĜĜĜĜĜĜĜĝ",
        "ĜĜĜĜĜĜĜĜĜĜĜĜĜĜĜĜĜĜĜĜĜĜĜĜĜĜĜĜĜĜĜĜĜĜĜĜĜĜĜ"
      ],
      [
        "ĝĜĞ",
        "ĜĜĜĜĜĜĜĜĜĜĜĜĜĜĜĜĜĜĜĜĜĜĜĜĜĜĜĜĜĜĜĜĜĜĜĜĜĜĜĜĜĜĜĜĜĜ"
      ],
      [
        "ĜĝĜ",
        "&"
      ],
      [
        "Ĕ",
        "ĜĜĝĀ"
      ],
      [
        "ğ",
        "ĜĘ"
      ],
      [
        "ď",
        "ĜĜĜĜĜĜ\"ĜĜĜĜĜĜĜĜĜĜĜĜĜ"
      ],
      [
        "ĜĞĜĀ",
        "ĜĜĜĜĜĜĜĜĜĜĜĜĜĜĜĜĜĜĜĜĜĜĜĜĜĜĜĜĜĜĜĜĜĜĜĜĜĜĜĜĜĜĜĜĜĜĜĜĜ"
      ],
      [
        "ĕ",
        "ĜĜĝĀ"
      ],
      [
        "!",
        "ĜĜĜ"
      ],
      [
        "ĝ",
        "\""
      ],
      [
        "ĝ",
        "#"
      ],
      [
        "ē",
        "ĜĜĝĀ"
      ],
      [
        "Ĝę",
        "ě"
      ],
      [
        "Ġ",
        "ĜĘ"
      ],
      [
        "ĜĜğ",
        "ĜĜĜĜĜĜĜĜĜĜĜĜĜĜĜĜĜĜĜĜĜĜĜĜĜĜĜĜĜĜĜĜĜĜĜĜĜĜĜĜĜĜĜĜĜĜ"
      ],
      [
        "ďĜĜĜĜĜĜ\"ĜĜĜĜĜĜĜĜĜĜĜĜĜ",
        "ĘĜĜĜĜĜĜ!ĜĜĜĜĜĜĘ"
      ],
      [
        "ę",
        "Ĝğ"
      ],
      [
        "#",
        "ĜĜĜ"
      ],
      [
        "ĜĞ",
        "ĝĜĜĜĜĜĜĜĜĜĜĜĜĜĜĜĜĜĜĜĜĜĜĜĜĜĜĜĜĜĜĜĜĜĜĜĜĜĜĜĜĜĜĜĜĜĜ"
      ],
      [
        "ė",
        "ĜĝĜĀ"
      ],
      [
        "Ğ",
        "ěě"
      ],
      [
        "Ā",
        "ĜĜĝĜĜĜĜĜĜĜĜĜĜĜĜĜĜĜĜĜĜĜĜĜĜĜĜĜĜĜĜĜĜĜĜĜĜĜĜĜĜĜĜĜĜĜĜĜĜ"
      ],
      [
        "ěĝ",
        "ě"
      ],
      [
        "ĜĜĜ",
        "Ě"
      ],
      [
        "ĜĜĞ",
        "ĜĜĜĜĜĜěĜĜĜĜĜĜĜĜĜĜĜĜĜĜĜĜĜĜĜĜĜĜĜĜĜĜĜĜĜĜĜĜĜĜĜĜĜĜĜ"
      ],
      [
        "ē",
        "ĜĜěĀ"
      ],
      [
        "ě",
        "Ĝę"
      ],
      [
        "\"",
        "ĜĘ"
      ],
      [
        "Ē",
        "ĜĜĜĜĜĜ%ĜĜĜĜĜĜĔĜĜĜĜĜĜ#ĜĜĜĜĜĜĖĜĜĜĜĜĜ"
      ],
      [
        "ĜĜĜ",
        "&"
      ],
      [
        "ĜĜě",
        "ĜĜĜĜĜĜĝĜĜĜĜĜĜĜĜĜĜĜĜĜĜĜĜĜĜĜĜĜĜĜĜĜĜĜĜĜĜĜĜĜĜĜĜĜĜĜ"
      ],
      [
        "ěĚ",
        "ĝ"
      ],
      [
        "Ě",
        "ĜĜĜĜĜĜĜĜĜĜĜĜĜĜĜĜĜĜĜĜĜĜĜĜĜĜĜĜĜĜĜĜĜĜĜĜĜĜĜĜĜĜĜĜĜĜ"
      ],
      [
        "Ę",
        "ĝ"
      ],
      [
        "ĝ",
        "ĜĜĜĜĜĜĝĜĜĜĜĜĜĜĜĜĜĜĜĜĜĜĜĜĜĜĜĜĜĜĜĜĜĜĜĜĜĜĜĜĜĜĜĜĜĜĜĜ"
      ],
      [
        "Ğ",
        "Ĝė"
      ],
      [
        "ĜĜĚ",
        "ĀĜĜĜĜĜĜĜĜĜĜĜĜĜĜĜĜĜĜĜĜĜĜĜĜĜĜĜĜĜĜĜĜĜĜĜĜĜĜĜĜĜĜĜĜĜĜĜĜĜ"
      ],
      [
        "ĜĜĜĜĜĜĜĜĝ",
        "ĜĜĜĜĜĜĜĜĜĜĜĜĜĜĜĜĜĜĜĜĜĜĜĜĜĜĜĜĜĜĜĜ"
      ],
      [
        "ė",
        "ě"
      ],
      [
        "Ġ",
        "Ĝė"
      ],
      [
        "ĝě",
        "ĜĜĜĜ"
      ],
      [
        "ĜĚ",
        "ĞĜĜĜĜĜĜĜĜĜĜĜĜĜĜĜĜĜĜĜĜĜĜĜĜĜĜĜĜĜĜĜĜĜĜĜĜĜĜĜĜĜĜĜĜĜĜ"
      ],
      [
        "ěě",
        "ěĜĜĜĜĜĜĜĜĜĜĜĜĜĜĜĜĜĜĜĜĜĜĜĜĜĜĜĜĜĜĜĜĜĜĜĜĜĜĜĜĜĜĜĜĜĜ"
      ],
      [
        "#",
        "\""
      ],
      [
        "ĜĜĜĜĜĜ%ĜĜĜĜĜĜ",
        "ğĜĜĜĜĜĜĕĜĜĜĜĜĜĞĜĜĜĜĜĜ"
      ],
      [
        "ĜĜĜĜě",
        "Ĝě"
      ],
      [
        "ĜĞ",
        "ğ"
      ],
      [
        "ĜĜĜě",
        "ĜĜĜĜĜĜĜĜĜĜĜĜĜĜĜĜĜĜĜĜĜĜĜĜĜĜĜĜĜĜĜĜĜĜĜĜĜĜĜĜĜĜĜ"
      ],
      [
        "ę",
        "ę"
      ],
      [
        "Ĝě",
        "ĜĜ"
      ],
      [
        "ĜĜ",
        "/"
      ],
      [
        "ĜĜě",
        "Ĝĝ"
      ],
      [
        "ĜĜě",
        "ĜĜĜĜĜĜĜĜĜĜĜĜĜĜĜĜĜĜĜĜĜĜĜĜĜĜĜĜĜĜĜĜĜĜĜĜĜĜĜĜĜĜĜĜ"
      ],
      [
        "Ğ",
        "ěĝ"
      ],
      [
        "ĝ",
        "$"
      ],
      [
        "ĜĜĜ",
        "ę"
      ],
      [
        "Ġ",
        "Ĝę"
      ],
      [
        "ĜĜ",
        "."
      ],
      [
        "ĜĜĜ",
        "."
      ],
      [
        "ē",
        "Ĝ"
      ],
      [
        "Ğ",
        "ĜĜĜĜĜ"
      ],
      [
        "ěĝ",
        "Ğ"
      ],
      [
        "Ġ",
        "ĜĚ"
      ],
      [
        "ĜĜĜĜě",
        "ĝ"
      ],
      [
        "%",
        "!"
      ],
      [
        "ĝĝ",
        "ĜĀ"
      ],
      [
        "ĜĜĜĜĜĜěĜĜĜĜĜĜĜĜĜĜĜĜĜĜĜĜĜĜĜĜĜĜĜĜĜĜĜĜĜĜĜĜ",
        "Ĝ"
      ],
      [
        "ĜĜĜĜĜěě",
        "ĜĜĜĜĜĜĜĜĜĜĜĜĜĜĜĜĜĜĜĜĜĜĜĜĜĜĜĜĜĜĜĜĜĜĜĜĜĜĜ"
      ],
      [
        "!",
        "ĜĘ"
      ],
      [
        "ĜĜ",
        "Ė"
      ],
      [
        "ğ",
        "!"
      ],
      [
        "ğ",
        "Ĝė"
      ],
      [
        "Ĝě",
        "ę"
      ],
      [
        "ĝĝ",
        "Ĝ"
      ],
      [
        "ĜĔ",
        "ĜĜĜĀĜĜĜĜĜĜĜĜĜĜĜĜĜĜĜĜĜĜĜĜĜĜĜĜĜĜĜĜĜĜĜĜĜĜĜĜĜĜĜĜĜĜĜĜĜĜĜĜĜ"
      ],
      [
        "ğ",
        "\""
      ],
      [
        "Ġ",
        "Ĕ"
      ],
      [
        "ĜĜĜĜĜĜĜĜ",
        "Ĝĝ"
      ],
      [
        "Ě",
        "ěě"
      ],
      [
        "ĜĜĜĜĝ",
        "Ĝĝ"
      ],
      [
        "ğ",
        "Ę"
      ],
      [
        "ěĜĚ",
        "ĜĜĜĜĜĜĜĜĜĜĜĜĜĜĜĜĜĜĜĜĜĜĜĜĜĜĜĜĜĜĜĜĜĜĜĜĜĜĜĜĜĜĜĜĜĜ"
      ],
      [
        "ĜĜĜĜ",
        "ĜĞĝ"
      ],
      [
        "ěĜĞ",
        "Ā"
      ],
      [
        "#",
        "ę"
      ],
      [
        "ĜĜĜĜĜĜĜĜĜĜĜĜĜĝ",
        "ĜĜĜĜĜĜĜĜĜĜĜĜĜĜĜĜĜĜĜĜĜĜĜĜĜ"
      ],
      [
        "ĜĜĜĝ",
        "Ā"
      ],
      [
        "Ĝē",
        "ĜĜĜĀĜĜĜĜĜĜĜĜĜĜĜĜĜĜĜĜĜĜĜĜĜĜĜĜĜĜĜĜĜĜĜĜĜĜĜĜĜĜĜĜĜĜĜĜĜĜĜĜĜ"
      ],
      [
        "ĜĜĜĜĜĜěĜĜĜĜĜĜě",
        "ĜĜĜĜĜĜĜĜĜĜĜĜĜĜĜĜĜĜĜĜĜĜĜĜĜ"
      ],
      [
        "$",
        "ě"
      ],
      [
        "Ġ",
        "Ē"
      ],
      [
        "ĜĜĜĜĜĜĝ",
        "ĜĜĜĜĜĜěĜĜĜĜĜĜĜĜĜĜĜĜĜĜĜĜĜĜĜĜĜĜĜĜĜĜĜĜĜĜĜĜ"
      ],
      [
        "#",
        "Ĝė"
      ],
      [
        "Ġ",
        "ĜĜ"
      ],
      [
        "Ĝě",
        "Ĝĝ"
      ],
      [
        "ĜĒ",
        "ĜĜĜĀ"
      ],
      [
        "Đ",
        "ĜĜĜĀĜĜĜĜĜĜĜĜĜĜĜĜĜĜĜĜĜĜĜĜĜĜĜĜĜĜĜĜĜĜĜĜĜĜĜĜĜĜĜĜĜĜĜĜĜĜĜĜĜ"
      ],
      [
        "ě",
        "Ğĝ"
      ],
      [
        "%ĜĜĜĜĜĜ",
        "ğĜĜĜĜĜĜĕĜĜĜĜĜĜĞĜĜĜĜĜĜ"
      ],
      [
        "Ĝę",
        "Ğ"
      ],
      [
        "ĜĝĞ",
        "Ā"
      ],
      [
        "ě",
        "ĜĜě"
      ],
      [
        "!",
        "Ĝĕ"
      ],
      [
        "Ġ",
        "Ĝĕ"
      ],
      [
        "ĜĜĜ",
        "*"
      ],
      [
        "ĜĜĜ",
        "Ď"
      ],
      [
        "ĜĜĜĜĜĜĜĜĜĜĜĜ",
        "ĜĚ"
      ],
      [
        "ĜĚ",
        "ğ"
      ],
      [
        "ĜěĜĜě",
        "ĜĜĜĜĜĜĜĜĜĜĜĜĜĜĜĜĜĜĜĜĜĜĜĜĜĜĜĜĜĜĜĜĜĜĜĜĜĜĜĜĜ"
      ],
      [
        "Ġ",
        "ĜĜĜĀ"
      ],
      [
        "ēĜĜĜĜĜĜ",
        "ğĜĜĜĜĜĜ#ĜĜĜĜĜĜĞĜĜĜĜĜĜĘĜĜĜĜĜĜė"
      ],
      [
        "\"",
        "Ę"
      ],
      [
        "\"",
        "ĜĖ"
      ],
      [
        "\"",
        "Ĝĕ"
      ],
      [
        "ė",
        "Ě"
      ],
      [
        "Ğ",
        "ĝĝ"
      ],
      [
        "ĜĜĜĜĜĜě",
        "ě"
      ],
      [
        "Ĝđ",
        "ĜĜĜĀ"
      ],
      [
        "Ā",
        "Ė"
      ],
      [
        "Ġ",
        "#"
      ],
      [
        "Ė",
        "ĜĜěĀ"
      ],
      [
        "Ġ",
        "đ"
      ],
      [
        "ĜĜĜ",
        "ď"
      ],
      [
        "ę",
        "Ę"
      ],
      [
        "Ĝĝ",
        "ĜĜĞ"
      ],
      [
        "ĜĜ",
        "-"
      ],
      [
        "ĜĜĜĜĜĜĝ",
        "ĜĜĜĜĜĜĜĜĜĜĜĜĜĜĜĜĜĜĜĜĜĜĜĜĜĜĜ"
      ],
      [
        "ĜĜěĜĜĜ",
        "\""
      ],
      [
        "Ěĝ",
        "ĜĜĜĜĜĜĜĜĜĜĜĜĜĜĜĜĜĜĜĜĜĜĜĜĜĜĜĜĜĜĜĜĜĜĜĜĜĜĜĜĜĜĜĜĜĜĜ"
      ],
      [
        "ĝ",
        "ĜĜĜĜĜĜĜĜĜĜĜĜĜĜĜĜĜĜĜĜĜĜĜĜĜĜĜĜĜĜĜĜĜĜĜĜĜĜĜĜĜĜĜĜĜ"
      ],
      [
        "ĝě",
        "ĜĀ"
      ],
      [
        "ę",
        "Ĝě"
      ],
      [
        "ĜĜĜ",
        "Ę"
      ],
      [
        "ĜĜĝĜĜĜ",
        "ĕ"
      ],
      [
        "#",
        "ĜĘ"
      ],
      [
        "'",
        "ĝ"
      ],
      [
        "Ğ",
        "!"
      ],
      [
        "Ě",
        "ė"
      ],
      [
        "Ě",
        "ĝĞ"
      ],
      [
        "ěě",
        "ĜĀ"
      ],
      [
        "Ġ",
        "ĜĀ"
      ],
      [
        "!",
        "\""
      ],
      [
        "\"",
        "\""
      ],
      [
        "ĜĚ",
        "Ě"
      ],
      [
        "Ġ",
        "ĕ"
      ],
      [
        "ĜĜĜ",
        "ć"
      ],
      [
        "ĜĝĜĀ",
        "ěĜĜĜĜĜĜĜĜĜĜĜĜĜĜĜĜĜĜĜĜĜĜĜĜĜĜĜĜĜĜĜĜĜĜĜĜĜĜĜĜĜĜĜĜĜĜĜĜ"
      ],
      [
        "ĜĝĜĀ",
        "ĜĜěĜĜĜĜĜĜĜĜĜĜĜĜĜĜĜĜĜĜĜĜĜĜĜĜĜĜĜĜĜĜĜĜĜĜĜĜĜĜĜĜĜĜĜĜĜĜ"
      ],
      [
        "Ē",
        "ĜĜěĀ"
      ],
      [
        "ĜĜĜĜĜĝ",
        "ĜĜĜĜĜĜĜĜĜĜĜĜĜĜĜĜĜĜĜĜĜĜĜĜĜĜĜĜĜĜĜĜĜĜĜĜĜĜĜ"
      ],
      [
        "ĜĜĜĜĜĜĜĜĜĜĜĜĜ",
        "%ĜĜĜĜĜĜĜĜĜĜĜĜĜĖĜĜĜĜĜĜĜĜĜĜĜĜĜ!"
      ],
      [
        "!",
        "ĜĖ"
      ],
      [
        "%",
        "ĜĜěĜĜĜ"
      ],
      [
        "ĝ",
        "Ĝğ"
      ],
      [
        "ĜĜĝ",
        "Ĝě"
      ],
      [
        "!",
        "ė"
      ],
      [
        "ĜĜĝ",
        "ě"
      ],
      [
        "ĜĝĜĜĜĜ",
        "Ğ"
      ],
      [
        "đ",
        "Ĝ"
      ],
      [
        "ĜĜĜ",
        "#"
      ],
      [
        "ěě",
        "ĜĜĜĜĜĜĜĜĜĜĜĜĜĜĜĜĜĜĜĜĜĜĜĜĜĜĜĜĜĜĜĜĜĜĜĜĜĜĜ"
      ],
      [
        "Ē",
        "ĜĜĝĀ"
      ],
      [
        "Ę",
        "ĜĜĜĀĜĜĜĜĜĜĜĜĜĜĜĜĜĜĜĜĜĜĜĜĜĜĜĜĜĜĜĜĜĜĜĜĜĜĜĜĜĜĜĜĜĜĜĜĜĜĜĜĜ"
      ],
      [
        "Ě",
        "ĜĜĜě"
      ],
      [
        "%ĜĜĜĜĜĜ",
        "ĔĜĜĜĜĜĜ#ĜĜĜĜĜĜĖĜĜĜĜĜĜ"
      ],
      [
        "#",
        "ĜĔ"
      ],
      [
        "'",
        "Ğ"
      ],
      [
        "ğ",
        "#"
      ],
      [
        "!",
        "ĜĔ"
      ],
      [
        "$",
        "ę"
      ],
      [
        "ĝ",
        "ęĜ"
      ],
      [
        "ĜĜĜĜĜĜě",
        "ĜĜĜĜĜĜĜĜĜĜĜĜĜĜĜĜĜĜĜĜĜĜĜĜĜĜĜ"
      ],
      [
        "%",
        "ě"
      ],
      [
        "ĜĜĝ",
        "ĜĜĜĜĜĜĜĜ"
      ],
      [
        "ĜĜĜĜĜěĝ",
        "ĜĜĜĜĜĜĜĜĜĜĜĜĜĜĜĜĜĜĜĜĜĜĜĜĜĜĜĜĜĜĜĜĜĜĜĜĜĜĜ"
      ],
      [
        "đ",
        "ĜĜĜĀĜĜĜĜĜĜĜĜĜĜĜĜĜĜĜĜĜĜĜĜĜĜĜĜĜĜĜĜĜĜĜĜĜĜĜĜĜĜĜĜĜĜĜĜĜĜĜĜĜ"
      ],
      [
        "Ĝě",
        "ğĜĜĜĜĜĜĜĜĜĜĜĜĜĜĜĜĜĜĜĜĜĜĜĜĜĜĜĜĜĜĜĜĜĜĜĜĜĜĜĜĜĜĜĜĜĜ"
      ],
      [
        "#",
        "ĜĖ"
      ],
      [
        "ĜĜĝ",
        "ĜĜĜĜĜĜĜĜĜĜ"
      ],
      [
        "ĜĜĜĜĜĜĜĜě",
        "ĜĜĜĜĜĜĜĜĜĜĜĜĜĜĜĜĜĜĜĜĜĜĜĜĜĜĜĜĜĜĜĜ"
      ],
      [
        "ĝ",
        "Ė"
      ],
      [
        "ĜĜĜĜĜĝ",
        "ĜĜĜĜĜĜĜĜĜĜĜĜĜĜĜĜĜĜĜĜĜĜĜĜĜĜĜĜĜĜĜĜĜĜ"
      ],
      [
        "ēĜĜĜĜĜĜ",
        "ĔĜĜĜĜĜĜĕĜĜĜĜĜĜĖĜĜĜĜĜĜĘĜĜĜĜĜĜĚ"
      ],
      [
        "ĜĜĜĜĜĝě",
        "ĜĜĜĜĜĜĜĜĜĜĜĜĜĜĜĜĜĜĜĜĜĜĜĜĜĜĜĜĜĜĜĜĜĜĜĜĜĜĜ"
      ],
      [
        "$",
        "Ĝĕ"
      ],
      [
        "Ěě",
        "ĜĜĜĜĜĜĜĜĜĜĜĜĜĜĜĜĜĜĜĜĜĜĜĜĜĜĜĜĜĜĜĜĜĜĜĜĜĜĜĜĜĜĜĜĜĜĜ"
      ],
      [
        "ĜĜĜ",
        "Ğ"
      ],
      [
        "ĜĜě",
        "Ĝě"
      ],
      [
        "ĝĝ",
        "ĜĜĜĜ"
      ],
      [
        "ěĚ",
        "Ğ"
      ],
      [
        "\"ĜĜĜĜĜĜĜĜĜĜĜĜĜ",
        "ĘĜĜĜĜĜĜ!ĜĜĜĜĜĜĘ"
      ],
      [
        "#",
        "Ĝĕ"
      ],
      [
        "ĜĜĜĜ",
        "ĜĀ"
      ],
      [
        "ĜĜĜĜě",
        "Ĝğ"
      ],
      [
        "ĕĜĜĜĀ",
        "ĜěĜĜĜĜĜĜĜĜĜĜĜĜĜĜĜĜĜĜĜĜĜĜĜĜĜĜĜĜĜĜĜĜĜĜĜĜĜĜĜĜĜĜĜĜĜĜĜ"
      ],
      [
        "ĜĜĘ",
        "Ā"
      ],
      [
        "ĝ",
        "ĜĖ"
      ],
      [
        "ē",
        "ĜĞĜĀ"
      ],
      [
        "Ğ",
        "#"
      ],
      [
        "Ğ",
        "ė"
      ],
      [
        "Ġ",
        "ĜĖ"
      ],
      [
        "ěĞ",
        "Ĝ"
      ],
      [
        "ēĜĜĜĜĜĜ",
        "$ĜĜĜĜĜĜĕĜĜĜĜĜĜ\"ĜĜĜĜĜĜĘĜĜĜĜĜĜĞ"
      ],
      [
        "\"",
        "ė"
      ],
      [
        "Ď",
        "ĜĜĜĀ"
      ],
      [
        "ĜĜĝ",
        "ĜĜĜĜěĜĜĜĜĜĜĜĜĜĜĜĜĜĜĜĜĜĜĜĜĜĜĜĜĜĜĜĜĜĜĜĜĜĜĜĜĜĜĜĜĜ"
      ],
      [
        "ĜĜĞ",
        "ĀĜĜĜĜĜĜĜĜĜĜĜĜĜĜĜĜĜĜĜĜĜĜĜĜĜĜĜĜĜĜĜĜĜĜĜĜĜĜĜĜĜĜĜĜĜĜĜĜĜ"
      ],
      [
        "ĜĜĜĝ",
        "ĜĜĜĜĜĜĜĜĜĜĜĜĜĜĜĜĜĜĜĜĜĜĜĜĜĜĜĜĜĜĜĜĜĜĜĜĜĜĜĜĜĜĜ"
      ],
      [
        "ěě",
        "ĜĜĜĜ"
      ],
      [
        "ĜĜĜĜĜĝ",
        "ĜĜĜĜĜĜĜĜĜĜĜĜĜĜĜĜĜĜĜĜĜĜĜĜĜĜĜĜĜĜĜĜĜ"
      ],
      [
        "ĜĜĝĜĜĜ",
        "#"
      ],
      [
        ")",
        "ĜĜĜĜĜĜ\"ĜĜĜĜĜĜĜĜĜĜĜĜĜ"
      ],
      [
        "!",
        "ĜĜĜĀ"
      ],
      [
        "ĜĜě",
        "ĜĜě"
      ],
      [
        "ĜĜĜĜĜĜĝ",
        "ĝ"
      ],
      [
        "ěĜĝ",
        "ĜĜĜĜĝĜĜĜĜĜĜĜĜĜĜĜĜĜĜĜĜĜĜĜĜĜĜĜĜĜĜĜĜĜĜĜĜĜĜĜĜĜĜĜĜĜ"
      ],
      [
        "ĜĜĜě",
        "ĜĜĜĜĜĜĜĜĜĜĜĜĜĜĜĜĜĜĜĜĜĜĜĜĜĜĜĜĜĜĜĜĜĜĜĜĜĜĜ"
      ],
      [
        "ĜĜĜĜĜĜĜĜĜĜĜĜĜě",
        "ĜĜĜĜĜĜĜĜĜĜĜĜĜĜĜĜĜĜ"
      ],
      [
        "Ğ",
        "ěĜ"
      ],
      [
        "ğ",
        "ĜĜĀ"
      ],
      [
        "'",
        "ĜĜĜĀ"
      ],
      [
        "ğ",
        "ĜĞ"
      ],
      [
        "Ġ",
        "Ĝē"
      ],
      [
        "!",
        "Ĝę"
      ],
      [
        "$",
        "ĜĜĜĀ"
      ],
      [
        "Ğ",
        "ĜĖ"
      ],
      [
        "ĜĜĜě",
        "ĜĜĜĜĜĜĜĜĜĜĜĜĜĜĜĜĜĜĜĜĜĜĜĜĜĜĜĜĜĜĜĜĜĜĜĜĜĜĜĜĜ"
      ],
      [
        "ğ",
        "Ĝĕ"
      ],
      [
        "ĜĝĚ",
        "Ā"
      ],
      [
        "Ē",
        "Ĝ"
      ],
      [
        "ĝ",
        "%"
      ],
      [
        "Ĝĝ",
        "ĜĜ"
      ],
      [
        "ĕĜĜĜĀ",
        "ĜĜĝĜĜĜĜĜĜĜĜĜĜĜĜĜĜĜĜĜĜĜĜĜĜĜĜĜĜĜĜĜĜĜĜĜĜĜĜĜĜĜĜĜĜĜĜĜĜ"
      ],
      [
        "ĜĝĜĜĜĜĝ",
        "ĜĜĜĜĜĜĜĜĜĜĜĜĜĜĜĜĜĜĜĜĜĜĜĜĜĜĜĜĜĜĜĜĜĜĜĜĜĜĜ"
      ],
      [
        ")ĜĜĜĜĜĜ\"ĜĜĜĜĜĜĜĜĜĜĜĜĜ",
        "ĘĜĜĜĜĜĜėĜĜĜĜĜĜĘ"
      ],
      [
        "&",
        "ĜĜĜĀ"
      ],
      [
        "ē",
        "ĜĜěĜĜĜ"
      ],
      [
        "ĕ",
        "ē"
      ],
      [
        "ĜĜĜĜĜĜěĜĜĜĜĜĜĝ",
        "ĜĜĜĜĜĜĜĜĜĜĜĜĜĜĜĜĜĜĜĜĜĜĜĜĜ"
      ],
      [
        "ė",
        "ę"
      ],
      [
        "ĜĜĜĜĜĜĝ",
        "ĜĜĜĜĜ"
      ],
      [
        "ĜĜĜĜĜĝĝ",
        "ĜĜĜĜĜĜĜĜĜĜĜĜĜĜĜĜĜĜĜĜĜĜĜĜĜĜĜĜĜĜĜĜĜĜĜĜĜĜĜ"
      ],
      [
        "!",
        "Ĝē"
      ],
      [
        "Ğ",
        "$"
      ],
      [
        "ěĝ",
        "ĜĀ"
      ],
      [
        "ĝĜĝ",
        "ĜĜĜ"
      ],
      [
        "ĜĝĜĜĜĜĝ",
        "ĜĜĜĜĜĜĜĜĜĜĜĜĜĜĜĜĜĜĜĜĜĜĜĜĜĜĜĜĜĜĜĜĜĜ"
      ],
      [
        "ěĜĜĜě",
        "ĜĜĜĜĜĜĜĜĜĜĜĜĜĜĜĜĜĜĜĜĜĜĜĜĜĜĜĜĜĜĜĜĜĜĜĜĜĜĜĜĜĜĜĜ"
      ],
      [
        "\"",
        "ĜĜĜĀ"
      ],
      [
        "ė",
        "ĜĜĝĀ"
      ],
      [
        "Ę",
        "Ę"
      ],
      [
        "\"",
        "ĜĔ"
      ],
      [
        "ĜĜĜĜĜĜě",
        "ĜĜĜĜĜĜĜĜĜĜĜ"
      ],
      [
        "ĝě",
        "Ě"
      ],
      [
        "ĖĜĜĜĀ",
        "ĜĝĜĜĜĜĜĜĜĜĜĜĜĜĜĜĜĜĜĜĜĜĜĜĜĜĜĜĜĜĜĜĜĜĜĜĜĜĜĜĜĜĜĜĜĜĜĜĜ"
      ],
      [
        "đ",
        "ĜĜěĀ"
      ],
      [
        "Ğ",
        "ĝě"
      ],
      [
        "ĜĜĝ",
        "ĜĜĜĝ"
      ],
      [
        "ĜĜĜĜě",
        "ĜĚ"
      ],
      [
        "ĜĜĜē",
        "ĜĜěĜĜĜ"
      ],
      [
        "Ę",
        "ę"
      ],
      [
        "Ě",
        "ěĜ"
      ],
      [
        "ğ",
        "ė"
      ],
      [
        "ğ",
        "ĜĖ"
      ],
      [
        "!",
        "#"
      ],
      [
        "ěĝ",
        "ĞĜĜĜĜĜĜĜĜĜĜĜĜĜĜĜĜĜĜĜĜĜĜĜĜĜĜĜĜĜĜĜĜĜĜĜĜĜĜĜĜĜĜĜĜĜĜ"
      ],
      [
        "ĜĜĞ",
        "Ĝ"
      ],
      [
        "ěĚ",
        "ĝĜĜĜĜĜĜĜĜĜĜĜĜĜĜĜĜĜĜĜĜĜĜĜĜĜĜĜĜĜĜĜĜĜĜĜĜĜĜĜĜĜĜĜĜĜĜ"
      ],
      [
        "ĖĜĜĜĀ",
        "ĜĜĝĜĜĜĜĜĜĜĜĜĜĜĜĜĜĜĜĜĜĜĜĜĜĜĜĜĜĜĜĜĜĜĜĜĜĜĜĜĜĜĜĜĜĜĜĜĜ"
      ],
      [
        "#",
        "ĜĜĜĀ"
      ],
      [
        "Ė",
        "ĜĜĝĀ"
      ],
      [
        "Ė",
        "Ě"
      ],
      [
        "ěě",
        "ĜĜĜĜĜĜĜĜĜĜĜĜĜĜĜĜĜĜĜĜĜĜĜĜĜĜĜĜĜĜĜĜĜĜĜĜĜĜĜĜĜĜĜĜ"
      ],
      [
        "ēĜĜĜĜĜĜ",
        "ęĜĜĜĜĜĜ#ĜĜĜĜĜĜĚĜĜĜĜĜĜĘĜĜĜĜĜĜ!"
      ],
      [
        "$",
        "Ĝė"
      ],
      [
        "ĜĜĜĜĝ",
        "ĝě"
      ],
      [
        "ĜĜĜĜĀ",
        "ĜĞĜĜĜĜĜĜĜĜĜĜĜĜĜĜĜĜĜĜĜĜĜĜĜĜĜĜĜĜĜĜĜĜĜĜĜĜĜĜĜĜĜĜĜĜĜĜĜ"
      ],
      [
        "#",
        "Ĝ"
      ],
      [
        "*",
        "ĜĜĜĀ"
      ],
      [
        "ď",
        "Ĝ"
      ],
      [
        "Ę",
        "ĜĞ"
      ],
      [
        "ĜĜĜĜĀ",
        "ĜěĜĜĜĜĜĜĜĜĜĜĜĜĜĜĜĜĜĜĜĜĜĜĜĜĜĜĜĜĜĜĜĜĜĜĜĜĜĜĜĜĜĜĜĜĜĜĜ"
      ],
      [
        "ĕĜĜĜĀ",
        "ĜĝĜĜĜĜĜĜĜĜĜĜĜĜĜĜĜĜĜĜĜĜĜĜĜĜĜĜĜĜĜĜĜĜĜĜĜĜĜĜĜĜĜĜĜĜĜĜĜ"
      ],
      [
        "Ĕ",
        "ě"
      ],
      [
        "ę",
        "ĜĜ"
      ],
      [
        "ě",
        "ęĜ"
      ],
      [
        "Ğ",
        "\""
      ],
      [
        "Ğ",
        "ĜĔ"
      ],
      [
        "Ě",
        "Ĝę"
      ],
      [
        "ĝ",
        "&"
      ],
      [
        "ĜĘ",
        "ĜĀ"
      ],
      [
        "$",
        "ĜĖ"
      ],
      [
        "ĔĜĜĜĀ",
        "ĜĜěĜĜĜĜĜĜĜĜĜĜĜĜĜĜĜĜĜĜĜĜĜĜĜĜĜĜĜĜĜĜĜĜĜĜĜĜĜĜĜĜĜĜĜĜĜĜ"
      ],
      [
        "ĘĜĜĜĀ",
        "ĜĜĝĜĜĜĜĜĜĜĜĜĜĜĜĜĜĜĜĜĜĜĜĜĜĜĜĜĜĜĜĜĜĜĜĜĜĜĜĜĜĜĜĜĜĜĜĜĜ"
      ],
      [
        "ĝ",
        "ĜĜě"
      ],
      [
        "ğ",
        "Ĝĝ"
      ],
      [
        "ğ",
        "Ĝē"
      ],
      [
        "ĞĜĝ",
        "ĜĜĜĜĜĜĜĜĜĜĜĜĜĜĜĜĜĜĜĜĜĜĜĜĜĜĜĜĜĜĜĜĜĜĜĜĜĜĜĜĜĜĜĜĜĜ"
      ],
      [
        "ėĜĜĜĀ",
        "ĜĜĝĜĜĜĜĜĜĜĜĜĜĜĜĜĜĜĜĜĜĜĜĜĜĜĜĜĜĜĜĜĜĜĜĜĜĜĜĜĜĜĜĜĜĜĜĜĜ"
      ],
      [
        "ĜĜĜĜĜĜĜĜĜĜĜĜ",
        "ĜĞ"
      ],
      [
        "ę",
        "ěĝ"
      ],
      [
        "ğ",
        "$"
      ],
      [
        "ĝĝ",
        "Ğ"
      ],
      [
        ")",
        "ĜĜĜĀ"
      ],
      [
        "#",
        "Ę"
      ],
      [
        "%",
        "ĜĜĜĀ"
      ],
      [
        "ě",
        "ĕ"
      ],
      [
        "ĜěĜĜĝ",
        "ĜĜĜĜĜĜĜĜĜĜĜĜĜĜĜĜĜĜĜĜĜĜĜĜĜĜĜĜĜĜĜĜĜĜĜĜĜĜĜĜĜ"
      ],
      [
        "Ğ",
        "Ĝĕ"
      ],
      [
        "ĜĝĜĀ",
        "ĜĜĝĜĜĜĜĜĜĜĜĜĜĜĜĜĜĜĜĜĜĜĜĜĜĜĜĜĜĜĜĜĜĜĜĜĜĜĜĜĜĜĜĜĜĜĜĜĜ"
      ],
      [
        "ěĜĝ",
        "ĜĜĜĜěĜĜĜĜĜĜĜĜĜĜĜĜĜĜĜĜĜĜĜĜĜĜĜĜĜĜĜĜĜĜĜĜĜĜĜĜĜĜĜĜĜ"
      ],
      [
        "Ĝĕ",
        "Ĝ"
      ],
      [
        "Đ",
        "Ĝ"
      ],
      [
        "ē",
        "ĝĜĜĜĜĜ"
      ],
      [
        "ĜĜĜĜĜĝ",
        "Ğ"
      ],
      [
        "ĜĝĜ",
        "ĕ"
      ],
      [
        "ē",
        "ě"
      ],
      [
        "ė",
        "ĝ"
      ],
      [
        "ěĚ",
        "ĜĜĜĜĜĜĜĜĜĜĜĜĜĜĜĜĜĜĜĜĜĜĜĜĜĜĜĜĜĜĜĜĜĜĜĜĜĜĜĜĜĜĜĜĜĜĜ"
      ],
      [
        "ĜĜĜĜěĜĝ",
        "ĜĜĜĜĜĜĜĜĜĜĜĜĜĜĜĜĜĜĜĜĜĜĜĜĜĜĜĜĜĜĜĜ"
      ],
      [
        "!",
        "ĜĚ"
      ],
      [
        "ė",
        "ĜĜěĀ"
      ],
      [
        "ğ",
        "ěě"
      ],
      [
        "ğ",
        "ĜĔ"
      ],
      [
        "ĜĜĜĜ",
        "ĜĚě"
      ],
      [
        "ĕĜĜĜĀ",
        "ĜĜěĜĜĜĜĜĜĜĜĜĜĜĜĜĜĜĜĜĜĜĜĜĜĜĜĜĜĜĜĜĜĜĜĜĜĜĜĜĜĜĜĜĜĜĜĜĜ"
      ]
    ]
  }
}